node {
  name: "Input"
  op: "Placeholder"
  attr {
    key: "dtype"
    value {
      type: DT_FLOAT
    }
  }
  attr {
    key: "shape"
    value {
      shape {
        dim {
          size: -1
        }
        dim {
          size: 28
        }
        dim {
          size: 28
        }
        dim {
          size: 1
        }
      }
    }
  }
}
node {
  name: "sequential/conv2d/Conv2D/ReadVariableOp/resource"
  op: "Const"
  attr {
    key: "dtype"
    value {
      type: DT_FLOAT
    }
  }
  attr {
    key: "value"
    value {
      tensor {
        dtype: DT_FLOAT
        tensor_shape {
          dim {
            size: 3
          }
          dim {
            size: 3
          }
          dim {
            size: 1
          }
          dim {
            size: 32
          }
        }
        tensor_content: "\014i\330=\356!\314\275]\2139>\036\242\235\276\036@\372\272\016\357\'>je\363;\303\371\366\275\317\002\"\276\024$\007\276\311\332M>J\n\277=\334\312\232>)R\327<\205\344\036\273\304\205\220\276\3625\213=\2775\336=\341h\303=\200A\177=\254Iv\276f\026\354\275\346\340\360\275\211*B=fz\356\275\272d\007\276\230*\277\275\343i\"\276=\020\242\276b\210!\276\322\263P>\214V\004\275\256N%\276~QM>\326\002A>\357A\'\276}DA<)\204\344\274\341\0065\275\257R\017=\373\322\"\275Pm\345\275c\264\211<\256Q.>F\345s>&\244\201=\231\010\007\275\252\225\007>V\242u\276\256B4>\371\353\302<\036\204N\2730\272*\276$r0\276\274\t\231\276e\231\247<+\300\237=X?\026\275\212\210\365=\203E\r\276\335\323M\276\272q2\276QHg>yY\263=\214\332\177\276\347\207D\276g\347\263\276\305\236O>1\371\375:a\301\177>jFg:\004c\245<\272\032/\276,\376]\276\250\337n>\260\327\333=\000\313\274\275)\342\270<Dhs;\252\360\316<\377\370\274\275\324\007K\276\177\326\256\275\026m\345=?\220\026=\371\277\035\276\2718k\276J \\=\261\306%=;D\237=\261\003$\276\271\242\224\273\006b\267=\347\221\320<\320\275\237=\342r\250<\324\216.\276\331\334+\276\362\260\222>Z\320\263\276\007C\225:\224M\367\275\271\212\226=Z\225\024\276\n\212\000<\313\003\237>b\033\276\275\254\030&\276$_\\>\352\034b\275\255\357\'=\333\1777=\226Q\230=\177\237\332\274\\\370\327=\344\374u=\264|\030\276\301T\360\273\310H@>W4!=x\245/;\t\362\300=\363\311t\276\212\250R>x\2228\275\262\214\034>P\212`=\263\301\033\276x\227?\276\014*#>\016\341[=\033\244\317<<o\371=D\034\226=\351\r\035>V\304\316\275\364\205A>\302\036\"\276\335\265\336=1\222\204=(\"\007\276\332\241\310\275\307s\002\276\203\"y>\034\210\033\276\341a\235=2\033\026\274\245\030\235;;:r>\016\351\302=c\236\365\274\006\"\322=\360va\2752\205\027>}\326\203>L\320\020>}\215\315=\276\230>\276\274\021\031\274X\204\261\275\316\304\210\275(lX\275\255\341\265\276\237\037g>8\360,=\t\267X\275\214\243\247=\321\370\215=\315\244\353=\343\365\226\276\"O\311=u\346\215>\367\247\r\277\341\325m<a(!\276\343\016\342\275~\016\354\274\317\262\205=\003\177E\274\006\260\005\276Z\364\366<\255\307\233=[\344\227\274P\243\031\274\277\2514;9\235\264\274\352\263n\276\251\352>>\034PK>\020U\"\275\373\262=\2762\211&>\231\240\324=\275O\034\276\331K\022>jWJ\276\002lO=\212\205i\276&\235\325=\305B\340<\272\334\252:\035\247\204>\306vF\276u\320\327\275^W;\276\264\177\035\276\3423\356=\220[\006=\236q\025>\031\376+\276\200R\366=\006\233\334\274v\363u=$n\335;\336\331\345=\002`\023:;P\237=\260\307\240=\024\217\375\274NA,\276\255l\232<#\027\021>\223\271\270\276\340{f\276^l\241>\031\264\225=\261I\364=\tR\353\275\375\367\320\275\360\216\224\276\220a%<\371\363<\275\234\rN=S\362\035>\227\032\201\276\323n\265\276H>\334\276\n{\222=\312\345\037\275\365:\243\275\242\346:>\351\333\007>k\334\374;?Q\205=\013H\210>\375\014\362\273\314\0166>\250w\307=e\264\262<\200:\205\272\352E\013\275i\027G\276\351N}=G\327\342=\347=\312\276fu =`\256\252>\313\355a\275\3309\233\276\231Fh>\263\317\360=\361[\240\276\'\2630\276@o\n>A;S\275xO\242\274\224\355s\276\006+>\276\211\3543>\311\337\n\273\314]\017\275n\265\203\275dY\034\276`\201k=\223\033\270\275\254\025M\276\021\235\t\276&\313\">^\024!>x\301j=\016\013\016\275_aU\276J\014q\275</,\275\252C\036>0\204\235\275\264\302\r\276\305E\334="
      }
    }
  }
}
node {
  name: "sequential/conv2d/Conv2D/ReadVariableOp"
  op: "Identity"
  input: "sequential/conv2d/Conv2D/ReadVariableOp/resource"
  attr {
    key: "T"
    value {
      type: DT_FLOAT
    }
  }
}
node {
  name: "sequential/conv2d/Conv2D"
  op: "Conv2D"
  input: "Input"
  input: "sequential/conv2d/Conv2D/ReadVariableOp"
  attr {
    key: "T"
    value {
      type: DT_FLOAT
    }
  }
  attr {
    key: "data_format"
    value {
      s: "NHWC"
    }
  }
  attr {
    key: "dilations"
    value {
      list {
        i: 1
        i: 1
        i: 1
        i: 1
      }
    }
  }
  attr {
    key: "explicit_paddings"
    value {
      list {
      }
    }
  }
  attr {
    key: "padding"
    value {
      s: "VALID"
    }
  }
  attr {
    key: "strides"
    value {
      list {
        i: 1
        i: 1
        i: 1
        i: 1
      }
    }
  }
  attr {
    key: "use_cudnn_on_gpu"
    value {
      b: true
    }
  }
}
node {
  name: "sequential/conv2d/BiasAdd/ReadVariableOp/resource"
  op: "Const"
  attr {
    key: "dtype"
    value {
      type: DT_FLOAT
    }
  }
  attr {
    key: "value"
    value {
      tensor {
        dtype: DT_FLOAT
        tensor_shape {
          dim {
            size: 32
          }
        }
        tensor_content: "\306\216\335\273\234\004\235\274\004\036\335\273=N*\274\330\270,\276&\304>\274\307\312\r\276.\035\314\275\020 t\275@c\317\274\227\017e\274\244\226\030\275\372\310\211<\331\246\005\276\022\246*\275WR\227\275H\267\014\275e\3427\276\304m\302\275\270\226\354\275Q\r,\275V\252\025\274\017\2214\275kg\254\275d\340!\276\306\315\323\275\306Pk\274\tT\351\274\310\256r\275Y\256\272\275v\356;=V3\205\275"
      }
    }
  }
}
node {
  name: "sequential/conv2d/BiasAdd/ReadVariableOp"
  op: "Identity"
  input: "sequential/conv2d/BiasAdd/ReadVariableOp/resource"
  attr {
    key: "T"
    value {
      type: DT_FLOAT
    }
  }
}
node {
  name: "sequential/conv2d/BiasAdd"
  op: "BiasAdd"
  input: "sequential/conv2d/Conv2D"
  input: "sequential/conv2d/BiasAdd/ReadVariableOp"
  attr {
    key: "T"
    value {
      type: DT_FLOAT
    }
  }
  attr {
    key: "data_format"
    value {
      s: "NHWC"
    }
  }
}
node {
  name: "sequential/conv2d/Relu"
  op: "Relu"
  input: "sequential/conv2d/BiasAdd"
  attr {
    key: "T"
    value {
      type: DT_FLOAT
    }
  }
}
node {
  name: "sequential/max_pooling2d/MaxPool"
  op: "MaxPool"
  input: "sequential/conv2d/Relu"
  attr {
    key: "T"
    value {
      type: DT_FLOAT
    }
  }
  attr {
    key: "data_format"
    value {
      s: "NHWC"
    }
  }
  attr {
    key: "explicit_paddings"
    value {
      list {
      }
    }
  }
  attr {
    key: "ksize"
    value {
      list {
        i: 1
        i: 2
        i: 2
        i: 1
      }
    }
  }
  attr {
    key: "padding"
    value {
      s: "VALID"
    }
  }
  attr {
    key: "strides"
    value {
      list {
        i: 1
        i: 2
        i: 2
        i: 1
      }
    }
  }
}
node {
  name: "sequential/conv2d_1/Conv2D/ReadVariableOp/resource"
  op: "Const"
  attr {
    key: "dtype"
    value {
      type: DT_FLOAT
    }
  }
  attr {
    key: "value"
    value {
      tensor {
        dtype: DT_FLOAT
        tensor_shape {
          dim {
            size: 3
          }
          dim {
            size: 3
          }
          dim {
            size: 32
          }
          dim {
            size: 64
          }
        }
        tensor_content: "\344K\177>\001\336\026>\210\377\025>\250\277}\275\034\244\327=\"\376\321\275k\347\354\275V\223\006\276\224\233\000\276\355yL\276{\372\315\275\220\271)>\n@\034\276\324\324\004>\240e\344;\331\014\250\275Y\215x\276\257\364\234\275jq\250=\374\033\240\273\001j!=>\274\310\275\001h\276=t\032\303<m\n\'<\256\322\\\274u\206\013\275\256\210B\275\315\r\247\274{V\302=\333\345\204\276C\372G\276\237\245\014\276\246\363?>\214G\214\273\022~T=\353\027\233\275\312@O=\355\314\312\275\250\250\222\275z\227/\276\204\005\014>\227}y\275\252U\351\275\232\317\\\2762\322e\275\307I!>\003$\223=\341\314\027\276\243\330\312\274\232\"\230\2752\315\034\276\345\377A\276Og7=Wj\231\276\031\370\353=\307t\236\275\201\260\274\274\334\370\242\2750\377i\2758\306\002>\340\202\360\275\024\276\003=n\214\n\276\361\311\337\274\320M>=y\207D\275\177\341\263=*\214\311\275\370\027\214<\'\355\033>\214\260\245=,/\211=\354\rN>\277\251o=\267En>\252\301\222>[\003t<\356\320\242=\221QK>N\\\225=y\3568=\"\032\036\276\304\243\277=\r\272/\276\205\340B>\27733>\345!\032\276\323BV\276$T5=x\312\013=\023\220\017>b\017<\276\341q\"\276\252\271B\276\034\310.>|\202\331=\000>\002\275\005`\251\275//a=\032\321,\276t#\035=4L\026>\005y\036>\224\353\017\276\265|\253\275\226\361n<\363g\265=\372\325\335=\204\231\025=\035/\016\274G\350\034=\252\206H\275\342\207\251\2756\016\253\275C^E\274;\2176>\257\373#>q\326\256=\311t\233=\377\331\312=d\320\266=\245d9\275\362q\200=W\301\030=\206\244o\276\201\327\374\275\022\245\200\274\277\250d\275j\344\275<\262\243t\275y\037\234\276\330z\351=\361E\014=9\013\355=YK+<Nh5;\001\016/\275\215\2456>\347\225(=\231W\222=f\376\241\274\235\312^\275&:/>\030\261\017>p\000\021\276\364\324\237<E\374\241\275\333\321{\276b\340\225>,\336[>.R\224\275\246\263L\276\365kt=j\354\t<\236\250Z\276\226/M\276jv&<\266z\"\274\311\255\213=\262\204\037\275X=\246\275P\022W\275\260KL\274\005\t\324\275\375\360\312\275\016\246\231=y\000\313\275\233k\034>V\216\204;m\366\362\275\266\256$\275\315R><\031\333\006>\255\025\202\275\361d \275\227\220\300\275\2242\261\276\301\302\274=^B\247\275\314\347Y= \001S=,\246\267\275\351\274J\276\203W\220\275(]\344<\037\202K\275\2274\205\275\340F5=\013\3745\2757\335\206\275\007\267\303=j\277\005\275\016I\"\276\342+V\275\355\235\241\276&\322\271\272\246\201+\276<u\016\276M\2673\276\014\336:>\310M\305=\003!\003>\254\257\250\274<\3024>\304\263\023<\320\332\277=\026\220\273\275E&\310\275C\274\030>Z\001\271\274\0017\312=\270\312\016;\253~+\276\355\317\351=\322\377\242\275C\356\261\275\0000\3112)\361b>jB\314\275\211\230\226\276\021P[\2769[\201\275\200\257\251=&\362\353=15i\275\215\014\304=\265\356\254\275\225\232u\276\357\377\210\275\006\251\031={\221\346=[\013\032\276\3107?=)\213\260\275\010s\220=\233\005\305<\320\372\017>8\252\362=\002\235L=I\313r=f}\225>\305\330\226<\212\031\351=N\017\210=\205\363\205;\353\202\242\274\202y\">\203xP=M7\306\274\353|r\273\364=\233=\214\337^>\024\217\r=\2362\250=\026\273\242\275\343E\343=R\247\264\275m[q\274M\0362\276\022\034I\275*\022\334=\206g\222\275\243i+\275\306du=):\221\274\2510\215;1\255\242\273\177\037\203\276g\265\226\2750lT:\003m\201=!0\246=\201\031\220=\r\251(;\374\233\t=r\266\301<tl\365\274x\023H;L\270\261\275\317\254\005=T\244\250=84V\274P<:<\276\3115\276\334\305\236=\337b\017=\360\326\017\275\235\n\\=*.\270\275R\006\213\275\203(\\<m\034\353\274\365\232$\276a8\355=q&x\274\310K\335=`\223\232\275\023:\226=+\312\213<\031(\231\275\022\205\356</\323\237\275\303\\\314=\243\253\021\276rl\226=\030w\007>!\260K=\016w\254\275\225y)=\331\243>\275/L\227\275{\273\204\275\034\304\034=xj\226\275\263\270\024=\nJ\322<f\237.\276s\214\221\275\334\303f=\211\004\307>\212l!\276\013\037&\275h\350\363<\017\026\277\275#\037G\276\322\303i;\372\035v=\370\020\206\275\203\357\016\2754\007\177\276\240i\270\275\355{\331\275@W\374<C\031\326=\236D\312\272J\243$\276;K\310\274\330\2150\276B=$\276\3435\233\276\3071,\276\327\205\030\2768\252\230\275\273\227\260;\327sS;1\336\033>BJm\275\313{g\274\273#@\271\342w\243=\273\r\010>\000\355\241\275AN\375\274\362HM<\365\014\357<\246\262\222=[\034\035\275\026\003\027\276V$\203\275\024\330\254\274\305S\221\276\204\212\225=KY\254=J\022A=w\274k\276\367\355\231\274\215/v\276\250s\227=\016\353\201\276Z\207\026\276\211\347\204\275\317\323\244\274\014\025\017\276\321S\255=\275\225\275\275\366\rt\275\372\327\300\275\332\252\205\275L\325`\276\311\242\215\275_\212U=\277\377\034\275\264Z\250=\256{v=S\256s\275\311\024\237\275t\213q\276\342\345\'\276\306\267\325=\006Q\014=\204\201\207\275\036\376\023\274\271\253[=\312&.\275s\337L=\375\250\203\276\010#j\275\342\364 \275\316\306\224=\267\264O\275\035\271\253\275-\306F=\316i\355<6\244\305\274\325\363\207=\210O\013\275W5\234\275\rN\005\275VX\001>\205\227\323=@\033\021\275\256bP\276\227P%=\327`}\275\206\236\270=\306\025\276\274\031N5=`\342\364\275\301}\346\2751r)\275\340m\306\274\370J1=\322\337(\275f\366E>\020\213\313\275\265]\250\274\302\336\007\2766\235\231\2754\345A=\205\367I<.\031J=u@Y\276\024\275\031\276\"\224\034>*\377\004<\214\007\360;\324JM\274\020\000\375\275\262\304\263\2757\300\277\274\021S\006=\017F\302<\tr1:\037\345}\275\365^v\275@\206\214<za\203;?\206&=E\273\342\274\370\261*=z\004\214\276\013\201\355\274\036\270=\2760g\372\275\n\031\323:b\354==\262\220@\275N\207\312\274\232\333\260\2754\315r<~\037\006\275\021\017L\274\316\332\214\275Z6]=\3105\257\273M\307\301\272\024\226\257=\332s\223\274\372C\t\275\336\177\317<\225m\221\275i\323\237\273\322\333\333\275`\335$>\023\353\245\275\r\343\255\275%0\233\275M\037!\276\364r\010\276\320\313\322<\315\021\024\275_\031\313<\276~\006\276w\036\322\275vK4\276:`\243=\234\307\021\275_(\223\273\314F-\275\002\200u\275\303M\024=\220\"\353\275\032R\264=\273\010\347=\363\222\305;m\242I\275\344F[>K+c=\323\213\364\274\311\315\336\275\004\307h=\030\316\014\276l\332\273=\001t\220\273\255\214\307;\n\332\245;\255\004\n;\342:*>\203^t\276\334\324=\274\226\000\023\276\275\221/>\226,\006>\370\316>=\221\204\311\275\323>,\275\261Gu\275\341\260\225\2741\223<\276\376\001c=\031\241\n\276\017\337\036\275}\250.:\273\236:\276ea\301\275\n\336\0329\320Y\312\273\340\263\201\274V\003a\275\236\363\r\275\376el=\362+W<%\230\262=\211&\232\274q\350{\275\213\225\260=\365[\205=\tRg=V\346\256\275\255\006\243\276\260AT\273\205\031\220\275\325\000\311\275.p\200\275\240\270\031>\350\233\373\274\263Z\032=p\374\333\275\014 6\275\257\374\220<d\264\354\274\271\030\031>`\216\341=\333\375\377\274\250\017\213=\242\r\355\274\264\275\257=\307E?<\320v\311=\002YI\275.s\265=\201D\231\274}d\225\275D\276\031\276\320G\223<s\266\327\274W\324\357\275p\021Y=//\254=e\303\372\274\325\302\372\274<\013u\275\231\325W\276\036\204\244\275\264\350\350\274g\221\036>\026XT=\327N:=T\350\205\275\377\t\313=\2577\366\275Yv\324=\352rR\276\247\027\370=\303Y>\276\344|\356\275\211\250\213>\360\204\373\275\026\271\326=<M\307\275\321\007\331=\202\247=>\247\236z\276\225t\002\275\303\316==\362\234\273\275.\233L>`\343\022=Tc\267\275H\300 \276\005\300\345=\t\277\356\275(\330\335;D\014\024\276U2X>h\002\344\275\210\237\032=\203I\256\275\356\025 \275:\021\">KM+=\334\273\204=\002\363\024\275w/\306:\023\351H<\242G\024\276_g<>\365\375\354\275P:Y\275\341\003\007\276\313U\001\275\260\364\026\275\201\343r\275\241\251\007<zL\361\275\207\n\217\273\333\261\243\276\257\005&=\"\314\306=\276\026\243\2737t^\275\233\224\200\275\213\351\362\274F\277+\274)f<\276\013\'\352= \240+=\021\253\330=\031\346\374=l\320X>\361\251\316\275\301i\352\274\213\354&\2757^\377\275;\314&\276\211r\261<\222\277\t=\002w\372<i+\254\275\355\361$\276\325\311\214\275\t\241\250\274\351\013\242=\365\177\247=\nZ\212;\036\226+\276\241\261D\275\026\325\010\276u]D\276}\277\244\276\250h\366\275\224\273\371\275\245\210\004\276\007\262\231<\246CB<\263\235\030>\314\t\320;\313\251M\274\202\370\024=\357\203~=\r|\004>-\313\356:\360\265J<z}\215<4\350\026\273\n\250\004>\331\335V=y5u\275\312\3041\275\220S\002>\271ll\276\302\364\035>)?\341=\353\017\342\274 K\037\276P\244\007=<\321K\276V\335\000\275V\177\240\276oaJ\275\227v\220=\031\003\301=Q\2566\276\2721|=l\360\325\274\332\000\372<o)\375\275\252\036q=\272\301\210\276\035\265$\275a\232-=\274\245\203\274*\240\334<\307\341\222>\227\026\002\276\273s\004\276^\r<\276\037\343\006\275\356\363\024\276\260Jv\275\221\205\211\275}y8\275\343.7<j\353\212\275\246S\210\274a\260r=d\262\355<\2456\374=\221\243\356<\3248-\274\030*d\275p$\371\275\302q-=76\221\276\224\346\001\276nA.\275\226\327\262\275\035&\273\275o\375\302=y\366\257=\353\260\350<8\225\316=~2k=q<\020>\353`\215=[\352\233;\2766\341\274P\211\306\275`\201\271<\031u\030>7\037\350=p\337o\275\003w\036=](\204<\254\244\303\276\n\221\224<\004\325\231<\234\376\272=\255\031\335\275z\242\241;\314\262\343\275\372\355A\273\310\217\243\275\350C\261\275<5\310;>\235\222\275\316\234\346\275j\177\316=\2565\021>\271\377X\274S\336\020\276c\350X\275\223=\007\276_\246\036=l\024\204\274\203\202\034\275z&\026=\322\023\233>o\312-\276\213\211C\276|\232\213\276\216\026\036=\342\312\214\273j\006\276=\242\001\247\274\"]\251\274\021\325\327\275\275\263\035\273\270\250\371\275\260@\226=l\366\214\275d\233\032=[H\361\274Sq\255\275\250W&\276B\034E\276D\311)\276`\026\n\276\264xO\276\232\273\016\276\241\371\026\276c\036\236\275<\312\236\275\376\254\231\274{\025\004\276\006\300\010\276\210\205d\276\324[\005\275z\300\340=\351K/\276\314!K=2\210p\276\221\311\254<QE\361\273\311.\315;|-\010\276\333\367!<w\315\217>\335\237\022\275\250\257M=\341\360;\276H\322x\275\002\206\247=L\225\243=YAd\275\034\364\030\2751\216\251\275\362b8\276!\317\215\276\023b~=\213f\322=\300H\211\276\211\304\005=\n\374\267\275\237)\214\274\025\020\334=\233h[\276>\302\023\274\213>\266\275}\375V\276\277\215\035<\336\227\241=\001F\273;}\264\335\272\016\356F\275+\300G=\326(\235\275\037~#\276\307:\272\274yM\276=\002\3077=\241-\205\274\212\n\026=c\220\276\273\017H\036=S\205\266\275\016C\264\275\036Tl<\rdM\275\201\nO=\253O+>\001\010\225\274\026\004R=.U^\275\253\370\246\275\262]5<\t06\274\2319\324;D\023\002=\340\002N\276QF\336=V\024\356=}\177%\275\254\016E=\271\031\370\275=\266a\275\376\263L=E\203\336<\347\0368\275\277B\035=\244\357\"=\235\"\327\273\224\365\314\275P*\362;0\331^=\n?\245\275\227\026F\274,\016P<\tw\247<\213t\"\275\321\323\237<\021\237g=\370|\261;E\023\363\274I\276\306\275\035E\366<\322c\223\274_\023\251\275\300H\017\276\2142\317\275AM\033=\235)\031\275\177\342\344\274<\201\301\275\227\230\300\274LC\255=\261\370\250<D\350\350<\'\365\010\276\201\025\036<\201R6=[\323\216\2751\254D\2761c\333<0\240A\275,8\343<4\234\024\275\375\202l\276*F*=z\224N\274^\363\351=\013+\315=R,F\276K\255\260\275F\023\213=\212-\242\275|\266\334=J\302|<\332\307\277=\3279b\275\203_5=\322`{\275\254\031u<\317\357\032\276]\207\375=K\035T=\351\036\221=7\335\242<|\344\220\273\215h\217\275\315\330\327=J\336\204<\336\304(\276\377\201t=\235\003Q<\356xd\275\207\335\315=vL\025\275\235\320\217\275\334\366\003=k\334\263=\006\335\020\275\313\017\223\275\244\330\t\276\370\332\220;\204\226\227=\317\r\340\272\005-\241=]L\245\274\251h\377\275}\036\222<(\211\271\275\251\312C<n\232!=\372\201 \275\014\317489\312C\275\343\335:<!\315H\2752\220\023>\t\345\272=\037%\265\275\322\376V\276Y\255\217\276y\305 =\023v\316\274\023\322q\275 \320\007=\200K\360=\233\3018\274\013\035\304\274\210U\316\275\336\346u\273#\235U=b\335{=\314\232 =\035>\017=%\367\267=\270\201\352=G\264\230\274\217\214\020\275\346\227\031=\027\350\021\276\030\233\303\275V\331Q;\327]\375<\331s^=\026xv\276~\355\226\275G\201P\275\356\264\000\276I\337L=4\255\251\272\260{Q\275\214\266\201;\252\004+\275\254\304\014\275s\310P=\006\200!=\300H\\>\207H\212=j\\\205\274\013\351\245\275\361\270\007>\253on=\355 \260=Z\367\234\275\260\035\314\275\362\312\202\2750TT<\260\376.\274\250u\\\272\213\301\203=\377.\032\276\366\334\265\273\002\206\237={\037\276<w\237%\275\320\233\261\275G#\302\275\016\007b\276\327hU\275-L\240\275\354}%>\177)\307\273S\247\203\274\242xD\276\331=1>I\0146\2756\230\024=\274\n\203\276/\320>\275&z\002\276O\267\276;\264W\006><\304B\276\205P\006>\322\004\020\275\324e\322=\2338\361=K\020\371\275\347\032\r\275+lU=\034/[=\0048o>/\231\352<r*\272=l\t\036=}\304\323=u\347\271\275R[\237:\224\035\005\276\t\321\321=t\233\200\275\031\0326\275P<\226\273v7\301<F\371\017\275a\276\332<\274Rr\275\327\217\001\276\242\347k<\2767G=\256\032b\275\311;\270;9\315\223\275\024\301 ;B\277\350\274\307Q\206\275\333\033V=\227\337Q=\305g\020\276\336\021\254\275\311(\331<\224\0002\275\345@h<O\354\273\274\337\025\310\275\002n\230\275\0270j\2767\221q=\322r\014=$H6\276\365^B\274\036\021\'\276[\323\221\274!\255\301=\2441\032>\023\210\034\276\344\217w<\353a\232\276`\373\312<\354\361\020=\265\003\315\275\3256\316\275i\265\266<\267Yz=*\345\346<\232\276\235<CF\277\275OdC=n\301\276=\260\220Z=\332|\013\275\231\027\333;\305\257\273=\274k\251=$\034\277\274s\361*>+\260\032=EJ\214\275\252U\236<\376\034\305\275\004\344\266=\360\351\"=.\3438\276c\355\032>\343\t\247=\203J\273\274M\245\t>\033\203\333\272!\321\360=\302\016\326<\226\257\357\275B\203\241<\207\212\275=\314I\325=\366G\267\272\037\304\250\274\226(W=\350\224\313\274zf%\276[X\006\275\316\341\021\276I\234\370<b\014\031\276\204L\344\274*\370 \275E\261\223\272\013\010\177\275\377;\036\276N\355\222=\2626e=\201\254\264\275+\214B\275\314\221\026\276\227G\210\2757\020\034\2769w&\276\211\342\250\275\020\307(=\265\301\213=\230\277)\2745\206\206=\210\3769\276F\203\261\275.s\033=\032\352P\274\251\371\246\275\316\365\021=\301\003\344<\216Y\375=\355\026\'\275u\240l\276\221n\336=kt\267\275\026\020\332=\345\247\235=:u\322\275\220\215;=\232f\371\274k#\333<8\341\027>\331\ns\274\017\356\202\274&\003\240\274.(\260=R\3471\2751\2644\274?\002\341\275h\000E=\327\302(=\036\205\327\274M\342\240<Q\004\037=\224\244\347\275\321Nh\274\227\356C\275+\3034<\354\234\221=\007\264L\274\245\303\202=\003\322I\275\221\202\342;\366\211\237\275XBl<\217\005\362\274\2265<\275\237\337&\275\262d\006\276O\240\200\276\343\333\337=:\316\007\276*nV<\325\221\334<\035>V\274\312b\345\275\024\317\210\275\306;\223\2753\257\336\275\306=\337\274\200\305\034\275\331\3243\275#X\240<\275x^=\376\360#>\354\321\004\275\326}\317\275\273\0030\276#\323\334\275\3242x=)2O\275]\320\226\275\342\351\017\2755{\316;{\262\230=e\224D=\2118\377\275\n\341_\275\030\235V=\224G\222:\235+\n=\311?\303\274\266c`=\206e\203\274\246\364\n=\r!<;8\301Q\275\002\336\022\276NK\"\275\343P:<{j\200=1~\004\276\346\363\377\275J\252O\275\013\302\262=\375\313\247=\315\2556=}\323\r\276l7z\275\223a9=\035\230\304\274j\227\254\275<aN\275\014\002\324\275z&\">\234l\004\276u1\025=*r\026\276\034>\231\275\333\257\212\275\023Qb=\364<0=\236a\253\275\312\315`\276\331\310\r\275R\341\342\275\'Q\314\275\035\276\006<g\306\024\276\221\014\217\275\313\334\354<N\271\016=4\300\320<l\253\332\2751\234\306<\261\236\002\275\342\356\331\275p\355V\274\311\207\213=?\013\332=\024\263\372<\3630\234\275\230\311\223\275\211*v\274\2574\365\271\265\034\200\275\022\357\205\275\365\017,\275G\201\367\275\004~==C\330\241\276V\344\020=\213\270\254=}\302\300=j\267\016\276_)\264\275q\256\303=\372\262\336=\336>\232\273I\037@\275,A\\=\263\315\030=\270\314\310\274v_\342=r\266\026>\262k\370\275\226\203\225\276;\206\317\274\253\245)\275\316T\200\276!:\254<\006\306\230=\232\2143\276t\3728=[\204\364\275\337%\006\276l\241\004\275\215\315\214\275\202\234\266=H+\010>\343M\271:\030\206\350\275OS\237=\270\024\331=\210\217\367=#2n=!@&\276S\227\003>YX\223=\002\223\337\275D^\003\275\247\217\344\274v\032\206\276\033w\331\275\230\027\346:\376\240s>cQ\'\276rv\236\274\025K\003\275\321\035\230\276\267\345z\273\003\325(\2765s\002>\026\261\220=\271\317u=\350\321\202\275\177\345\244=I\364\315\275\255\200\021\276C*R\276\346V\'\275c\200\235\2769\336\022\275\345[Q=%\272X\276\033\010\256=\374\264i\2752\314W=\317Z\020\276q\333\231\275@\231\224\275\037%w<\206\022}\274,\220\322=\343;\247=0\316\246=\026-\030\275\213\267&>\360\370\262=\275\337\372\274\036t-\276Bb9<Z\374\031\276\210j\346\275\242\201\204\275\032c\225=\220\020\316<\327\3021=Z\362\254\275ZR\010\276\2504\210\273\241\025\325=\244]\'\274\273X\030>\035\010&\275\351\245\240\275\3002\271\275\3120o\273O\257\373=\345\021\271={\315&\276>\367E=\245x\371=\027\371\035\276K\205\020\274\203\260\213;zG}\2762\321\003\275\215\247\311<\310\313\227<i\327D<\302a\307\273\203?\325<?\004\224\275k0D;\2567\034\274\365\302\236>(\375\030>F}\317=\310\363\020<\232\2365>\215\373(\275+t\200\275\236\201\376\275\276\350\254\275&,\263\276\377\033;\276,\351D>\374\346x\276Y\001 >W\322A\274\014\032\'<\rFz\274PkO\276h\026\377<L\374)\275\004\313~=\247c\025>\243\035\n>(76=Q#(\274_\363=>m4\024\275L\343\271\274o\036T\275\347#\023>ql:\276\314\362\350\275^\335\t\276I\264\031>R\235\274\275\310\242\211=\245\340\355=\270R}\274l0\244\275Y\315c\274\246F#\276A=\305=\036O<\276Q\265\331\275#,\035\276\275n\013\275\243\1773<\262%\336=\313\251\354\275\235\332\216\275>\300\031<\235]&\276\352\005\033\276-\225\024>\220\274\201\276\"\247t\275\024\322\211\275N#3=\203se\275!D(\276n\316\'=\253\352T<K\321\030\274\217\235\244=\006\307\304=\253\230,\275\037\227%=\306}\241\276\270\r\227\275\304_\343=^V\332<\036?j<\200\350Y<\020\270\010=\244\337\001=\265\205\320\274\225\222R\276\010$p=\376\246\256=\217N\010\274s\\O=\266\003:=\n\211\247=\320\006\233=\315\210i=\327k\360=\350zr=\356\210O\275\277U\224=\344\277\021\274\207\354\t>\351\216\312\275\3508\246\276\006\365\276=!\232\r\275\351\013\211;,\330\245\274\237\253\314;\344\375\r=\337c\223<\013\344\214<\312Z\367\275\220\334\261=\016\202\325\274*\335\374=^V\234\275 \200z\275\025\251\204\275\32255\272\276s\213\275A\366\274<\030\365\256=PI,\276\215M\270\274\357\341\031>\327\311\312<39\333\275\251\030n<\230\334\311\275h/\226\275\231\300\204\275h\241#=nO\"\276o\221&\275V\177\373<\034\232\030\276\\\365\r\275Qn\300=i\"\256\274H\230\254=\027\013W=\'\356\254\274s\000\215\275s\215\307=b\320\333;\022g\376\27535\t<\346\270\303=\342\336\314=\201\243\227\274\250G2\275\"\023w\275\214\200\253\275\007\332\327\274\3538\333<Q\237\264<\277\272\313\272e\236\352<\236\270\031\274\003X\373\274Y\023\252\275P\004Q=S=\247=\372\255\006\275\374@\300=\352m\364<\337-\225\275\262\375\224\275\240\271G=\241\333\236\275:-\277\274\215w\n\275!z0\275RS\023\275\231xp\2746]\225\2753\262\277=\217@\266\275\350\210\322<c&\030<\024\010\231\275x\352v=\206W\024\274\357\035\245\272\245P,\275\270\237\274=\367\252\246\275\344\227\030>\274\233N<\227\010\223=\002\241\210\275\251\310\232=\351\244:\275\351\263\271\275c\235\2009\241\376\000>?6j<\3022r\275g\000\223=\334\240\030\276\274\242\270\274o\254Y=\024\254\335\274\370\323\000;\\5\010\276\374M\275\275\213\207q\276\361\214/=\010\303\264\272\033.7\274):b\275f\207r\275\345\033P\275`\0138\274\022\237a\276;&\207\274\274]\277\275\260\221V=\355Y\215\2740\215\225\274v\215\005>\375\035c\274\026\265\273\274\321\323 <|\222\263=A4Y\275\013,\367\272Xm\333\273\2376\020\274\034i\022=\014R\233\276&\000Y\275(a\311\274\331\3418=X\223\347\274r\035\010\276g\021c<\005\331\363\274\246\260\214\275\256[\305\275\221\013\002<\231D\262<\215\267/>\351\223M=\001\002\022=w\331\350\275\323\252\006>^\020\325=ozC=\024M\211\275u\025\362\275\266@\032\276A\246\234=]\364\312\275\316\316\240\275\360\377\251\273\000\004U\276--\273\275g\242\005\275\2402\333=/\023\325\2751\353\200\275C\271\277\275r_\'\276\202\024\347\275\271\200\235==\n\235\274\003\272\\>z\321\211\275WB\245>}\260\361\275\244*\353=PTK\275\335\310\356\274\351\277R\275\201\205}\275\033\'\320\274\"\357\275=vj\256=\313\034\223=\036\300%\276\271\356\222\275h\372.>\264h\037>],\216=\314\230\322=\177\177\030\276\006G\276=\306\227\220>\350Pb\270\273\315\206\276\210\266\267\275H\230W=Jr\300;/g*\275>\3453\276R\020.=*\004\236<\310\244\022\274\205\320\023<\206\277\225\274\242\212*\275x\230\027>G\204\213\275\003*D\275\005\016\225=%\250\254=\276\271\001=G\267\211\274d\2258>\375Af;\270\267\341=R\257;>vL\037\275\207\220F\276$\000\337\274\006\\\n>um\213\275\376{\261\273\377\370\251>v\177@=\214\254\267\275%\023p=pI\233<\206He\274E\304\235<\276\177\316\275G\340&\276cld\275\236\245:\275\343\370\236>\302\352C=\314\364\353\275\317M\200\276\243\365\202\274\322\374\027\276\264\257\n=g\010\235\274j\030\262=\324\"\217=\202fd<\376Q\335\275\276\251\237\275\000\377\300\274\021\370\225=\241Vk\275\332\320R\275\243b\r>\317g\217=\266+\037>\217\032\225\274GC\262\275\014\335j\275\025\022\261\275nd\024\273\256\327\246<4\311\r>\251\275\201\274\332\331?\276\277n)\275\021\222\245=\337]\374<\320\263\322=g\306\316=8\253\316=R\371\204\275L\350\363=io\362=o\355J\275\263A\037=\230\024\356\274W\022(\275Q\375\305=\211\364p>\210\250\244=C\242r<\241y\330\275\022fj\274\353\236\264=S\273\351=\333\307\016\275\030\376\030>FV\216=\345\216\014\275?HA=\317\r\023>\373\t\022\274\251\0243>\305\374F\275\326\323\344\273\003\273\253=\276\261O=\345\250\363\275\032\230%\276\216*y=\222R\307=\253\232@\275\323\306 \276}c\362;\021\226\033\276\373P\246\274#%\021\276\367\377\004>\026\250\023\2761\'\223<@\240\203\275\250X\026\276X.\341\275^gv\271\264\200\031\275\357o1\2762\327\"\275t\215\354=\270\365\332=\006\343\">\375W\367\275\271\244\377=8p\220\275@\377\312\275z\232\373<O\262 >Y#\225<\355g\202\276d@\210\274xY\200\275\220\345x\276Ya\307\275\t\305\377=)\330\216\275\030:\277\275qh\361\275\373uk\275\335\344\334<\002\204K\275~$b=3\357\211\274f\271V\275\347H\224\274GK\227=\243\314\016>\262\214\022>T\227\014=\333ph\275(\006\030>\266\217\022\275\340\245\211=\235\003\376\275\276X>=\223\201\r\276\355\361\007>tE\370=\215+(>\374\317\350\275_\237\337=T\3405>\204DJ\276\230\252\241\275\036\024\r\276x\217n=Wa\376=h\364v=\221\236\\\275\325\026]\274:\213\332\274\272:X\275\036j(\276\332h\201\275\356\336\335\275\245P\025\276\356\217\014>jR%\276\237\267b\274\224\220\343\275x\365\216\273[&\250\275\323\346\006\276(\247\247\274t\rp<\021\263\315=\331y<>[\201\214<\362\227\243=\362]C=/\265\023\275\030\346O=U\372\t\275\030\253\336\275\026\252^\273\261}\370\275\355\373\205\276\352\031\\\275\017\023\266=\016\335\324\274l\313\315=.\232o\274B\206\351\275\017\310\244=\037\223\271=\247\230\347<\313\356\001>\177X\333;R\245S\276`\030\216\275\331\2758=pj\257\275P\'\272\274\332\240\"\276\373:8>\364\230\237=\367y\256\275\330\323H\275(\377(<t\362\300\275D\033*=U3\246\275\277\007\305=\240.\036\275+\025\377\275\353O\235\275S\346h\276\241\300\325;\310g\016\276v\366\267>\327\2471\276>\227\311\274.\330\001\276l93\275\177\005 \276\024\243n=\001\305\303=\205\240\340\275BU$\275\372\305\217\2765\017\267\275qE\031\275\322\273\314\274\032F*\275\347\327\r\276\302r\274\274\"\363h\275)hx\276r\263i\276k\335\250\276\373\327\246\276\214\234\200\276\241\300}\2760\2465\276)|?\275\373\032\020=\010\2069\275\210\332\360\275\340m\272\275C(\323;\301+P=\220\325D\276\217b\005\276\210\203\267\275jk(\276\252Z\255=\010M)\275\364/!\276\343CM\275\242A1>NU\361\275\\W.<\224\361\010\276\357!\260\275\241&&\276\206\222\t\276[\365\206\276\324\250\220\275\200kK\276\213\356\374\275\017\004;\276\347^\307\274{I\002\276be\232\275\030\337e\272\234w\324\275\007\221\251\275\206\025B<\217\r\267\276LU\016<\033/\230<\252\322\013\276\326\376\306=\010\340\207=\347\000p\275\300\265\344\271H\370\234\2763j\370\273%H\232\2750\340\253\275!\236\323\275\300\334\267<\244\216U\275\367\342\304=\270\236\016=r\271@=p\373i=0\004F=S\372\301\275\013a\266;\267\250H=\344\035\325\273\000\217X>\203D\232<\205\241<\275\301H\201<\261\253\216\2751\224N\274\306\246\265\274\350\254\022>\351\231\311\274\017P:\276\314\301\205\275.\260\332\274]\237\221\275\345^l=\206\255(\276R\371\234=\275\374\220;\213\177\007\276\365\n\201\275\211_,>\226\034\304=P*\210\275\244Z@\2746\001\353;e)W<-q\232\275\262\253\336\274+\215\216=\314J\371\274\306\303k=\320\375\310=\345Q\013\271\301!4>i{\273\275\036\306\206\275,\204v\274\222e?=G\254\032;\313d\247\275\340\230\234=t\"\356=\261\363\000>-\017E\276\364x\374<^Q\007\276B\213\002>x\207\374\275\232\244u>\0054L\276\206\352\347<\243\253\360\275\325\376+\275\277\256\221\274.\017\007>\r8)<\245\2156<\233\233E\275\205\203I>\261\304i=\212\201\254=)\256\016\276B\235*\276\322\231\267<53\355=\211\343\036\276\025\037\256\275\241J\034\276P\217\014=\357\212\006>\374\271\312=\316\241;\276\365b(\276\242\264\250\274I\365\275\276\334\371\260=r\035\271\275\216[\203<\220a\205<D\346\332=\267\304\n>\t%>>\250/\225=\261\006\020>K\346\361\276\005g\316<\206\272\372\2751_\200<\222B\247\275\000\373P\274n|\r>J\377\332\274N\327\352\274\235m\013\274\316\277\332\275\251\353\024\276\326\205\276\276\314TA\276\232\263\335\275\336\321\331=\304\031\217\275wW`=\372N\016\276j\336e;\273\372\377\275\n\331\252\273i\266\310\274XU\006\275\344\365\215;p\263\255;\224M\025\276\337\001\"\276\016-O\276\277\235V\276\260\252F=c\353\255\276v\245(\276\"\302\212\276F\336\370=\322\2554\274\236\351-\275F\347n\276\262\316\311=faS>\334\236`=R\364#\276+\021\302\273\372I\233=\202 j\275#\377\304=LZp=\252\303H;\253\276.\276+\271A\275\253*\361\275m\020\246\276\325\251F\275\371\r\326\275y)\274\275G1\222\276Y\030\367=\213\224\207=\371\316k\275\356\332\353\275\017>n>S\220\313\276\233\326u=\200\232/\276\010\034.>\307V\222\275\354\350\365=l\260\236\276\375\001E\276\352\231\r\276\243\274\302\2759\020\t>]\2506>\033b\036=F\331g=\234\361\005>\004\201q>\316\370\266<\206\213t>\016B\264=\307`\035<\244\364&=\316\017\014\274.\223\364\275\245\304\025\275`\355\341\275\030\352\260\274\337\004F\276u6\357=M\216\272\274\000\204\261=\035G_=\307\002i<X\331\234\276\016\356\365\275?6<=\347=\010>l\t]=\354g\t=\354\014\217=ak=>_\\;<\270\026\230=w\322\023>\370I\025=\014\352\010\274Dc\204\275\004\220\t\275\371Ua>3\036\325=\035\245\222;c\354\354\275\205\374\177\274\207\304\356=\006z\204\275\253\266\224\276\340_%>)\023g\275\322\'\252\276\233p \276^\314\036\276\033\222W=m\255#<rK{=~o\227\275}Y\333\275|\305\221\275\367\201%\276a_8>d\343\315;1\330M>N.\321\274\227I!\2759?\377\2754\246\233<\"*Y>\204\252\250\275\302\0327\2758\301\010\276\210lv\275~\247\375=\271}\370\275:\203\217\275_\006\250=\026\337\005\276\032a\372\276\000p\330=E\257\032>\305\246G\275G4\002>\306\3424\276\377\355\256\276\224\356@\2769tf\275\276\302U\276E\nW\275\036\365v\275\212\231\226\276*\247\367=<]\020\276\276\247\336=\t\010]=l\305\300;J\022\336\274\217\023\267\275\252\244d\276~\017@>!\314\010\275\023\030\223=\032\355\002>\370\037)\2745\222\274=$}\264\275|z\246\275\033@\020\276,\355\367=\266\331\313=.\327\212<O\306\251\275\254W\237\275\316\333\017=\256\375\225\2744\255m;\357\206\361\275Tn\306\275}\251\030\276\344z;<T\261\255\275}\033y>\230B\025\273\375\027\221\2759\317\r\276%\227\361=\220ME\275/\213\310\275c\035\223\2769SQ=tM\\\275_\337\242\275\264\374\365;\367\217\214\2756X\341\274\320\313\312=\204\232\235=\320u\216\276R\364\212=q\207\202>y\333\215=\321W\013\276%$\221;:0\330\273\030\n\n\275\366\346H=\230\326\263=\375\235\013>\030\302\262=\016\372+>?d0\275V\357\327=&a\016\276cd\242=\251\224\016\2762]\352\273\365\017\213=\3114\220<U\314\007\275d\262+;\\\203\336=\031\0105\274o%\255\275\352\315\206\275M\273\201\275{z\270=\\C\273\275(\275\200;=T\301=\177\377\307\274?\302\253=\357\250\221=)\016\006\276\341\206\363;\252L$=\037\245\177<\246\235\262\275\261\034!>\220iJ;\324\311\367\275\312\3367=\233\331\023=?\207\007\276\311H\005\274\314%\013\275\215\006\333=\211\307\254\275y4\342<\020\217R\276Wh\200=>\326\007\275\020B\230\275\355\226\261\275\275U\332=Yf\002\275\362DB\276\263\343\230\275\364NK<O\034\327<\274\255\232<Bw\362:-gO=\334\210\033>\026\037\017>\224\010\226\275\013\221o\275*\245\354=\223Yo=\362\240\214\275\367\302s\274@\037\274=2\022A= \233\027=\366t\213\274c\231\244\275\032\361/>c\321\023=\317?\022=\2708x\275\001\337\325\273\204\363I\2755\'\n\276X\013-\275\332]\246=\244\214O\276\200\'\225<\246\275B\275\010\377\t\275L\220\036\2754\221\243\274\226\332\236\274M\014\224\273RZ\016>\332\0103\275 \330G=*\3400<\217\321o<\001/D=\321)\232\275\235b\r>\027wQ\274\316\241\345=\301DR\2752\004\271\274\353\247\206\273\237\005%>8\374\313\275b\331h\275\214V\016\275U\332\370\274C\327\276\275\226\230\336=\265\205\006=\2716\356\275T\361\236\276\322Q\'>\367\351\205\275\315Z\243<\375|\304=\020\201\204=\207\374\243\275!I\232=\373\243\215\276c\243\314\275\222\034N\276\326\206\255\274\353\203\206\275\304\341B\275\215K\234\275\227\t\360=\227Q\357\275\353\361=\275\303f\233\274&\344\315\274\207\332o\276mwB\276]\250\212<D\211\324\274\0319\306<a\037C=S\024\221\274Rtv\275\006\263o\276PVI\275\004\245\343=h.\347\275\313\237\030\276\235n\366<\032iL=q\371\321<@9\360\275\2575\350<\353\301\016\275E\210\"=\215\244\221\275\262\203\234\274\017E\021\273\033I\202\274:\016\017=\016\272\214=\n\261>\276U\361{=\027\266\367\275o\021\304=\307HS=\277\006Y=:\301\326<\347\241W\276\232\256/\275h\261h=c^\242\275s\331\213=Z\201\026\273\024\352\">|,\032=\013\341\221\274\3769\037\276.\224,\275;ze\275\362\347k\275\273\031\322\275\366\321\340=\217h\231=VI=\276!a\204\275\014\246\025<B\342\001=i\305\346\273\220\313\\<.\210\376=>\016\013\273\036\307,\275\307NQ=\021rt\275]N\243\274\014:\212\274\367\216\341\273\3355\247\275\016\247\255=\365!\357\273\202\244\n\276\220\354\032\273r\331 \275\376\276\316\275n\302w\275\013\263\376\273\312Ug\276\204\261$>\351U\310\275`\032\347\274P\321-=\202\177\376<\305\355\217\275G\327\341\275L^B\276\020k?>\231h\266=\261\020I=q\267\006\275\351\017S\274J\347\212=\312IE\275\2345\240\275\020\276O\275Cp\010>\232\030\324<\007\217\037\275\177l\022=\273Z\"\276\233H\347=\331\377\206\273\372\213\377;\002\346X=\257\r`\275\330\345H\275\016ap\275\200J\254\275e[7>\275\312v<I,\237\274\022\"\323\275\000\237\213\275?\n\325;+J?\275+\223T\276\340\364\326=\253$C\275{\220^\275)\202A\275>T\007\275\236]\323\272-\225\353=\313\r\024=q\267\221\275\270\016\222=;r\353=URU\275\274\364c\276\332\365o\274\356\337\017=tZ\246=\003,\336\2755\322\225<!m;=n\301\231\275\003F?=\334\321e\2757\"\330=<~;\2753@\341=6\3300\276\237\244\227=;\361[\275YP\323\275\310\266\261\275\326\236\255\274\211\326j=&Z~\275\327\341\237\275h\246A=+&\\\2751\227X\275\n\217*\276\2261\004\276\366I\016>wu\375\275\006\205C=T\271\033>\355<\275\275\222f\\\275A\2424=\220a\271=\023\237\235\274\353\353\301\274\373\323\376<\230\323\313\275\374\303\202\275\332a\300=\251\210\233\275\214X\207\273\260\264\224\274dR\310=\232rA=\213B\374\275\204\335\346\275s\306\202\275\335\200\334=U\2554\276\261\315\225\275\3026x\272\317\340\234\272(\227\252\275\261\274\201\275\n\007\023>\322\324%\274\363\215\341\275*\r\321=\007`r\276\0050A\275\274A\377\273\234.E\2750.W\275x*4<rY\326\275\341\230\367;\204){\274\'N\222<\022\363\312=r?\220\275\266;\236<\033k\363\273\2671\023= \216\n>\275i\341=\240\352\314\275\000\\\316<{\024\177\275\341\365\237=\263:\030\275p\223M=\247\215\206=\2340\t>\200\351*>>.F\275(u\315=\262\331\311=\245{~\275\324\353\";\252W\347<c\265\t>\323l\375=\252\025\031\276\374\233%>XvC\276\350\241\252=,\367\026=u\312a\276E\217<\274|}z\275\334w}\276\\1\237\274\016\251\016\276\022o\263\275\000{\177\275\271):>-\344.=?\003N<\"\2668\276\032U\321\275Z\374\000=G\261Y>5\337\327<\226<\003=\3068\247\276\3612o\276r\345\207\2747SC=\355/L\274\031\302^=\323\014\200<\270\360\007\275\212*\022>\350\216\007\276\313\327\200\276\ti\200=\004\371\220\276?~/\276\350QK:t0m\275\007(|\275g\365\333\274-\316\010\276\377\347^\276\243\316\020=\224|\2738\356\025o>\370\244C=\317\032\014\274v\030u\275\201\276\317\275\256\326\006<(~\357\275Xsg=\377\273\275\275TW\026\276\227\3343<\222\331\315\275\317\201\320<\300|t=\016>\316=<\223+=\212\010\277\274O\265\005=\222\227\204\2758`\221\275&QU=\324;\022\275\217)\271=\271V\271\275F\3024=<^2\274\002\213\t=*\343\202\275_\252\207\271\221f\013\276a\031\022>\337s\330<\212\223\376\275\323\373\253\275\270#\214\275[*\277\275\316<\271=h[\332\275\374L\361\275o\335h\276\340\367S=\241n\212\275\266\232\020><\353\232=A\270\304=\333cn=\305\021\377=9\222\247\275\331Yh<0\346x\276\255\372%<\306\014\322\274\236\017d=\340v\270\2742>H>\3520X\272\033\225\014<Gp\010;\305\017\352\275 2W\276K\006Q\276\206\247\307\274\2202\237=/\207E=\'\327 >\004\225\214=\352\275\013\276\332\220:\273\277\327\354<\207\272\321=h_\005\276=\236X\275\355\313\327\2750\324\303\275\320\001\301\275N\001\037=&\033c=\300U\020>\375\233\230=UQt=\220\0339=6\032\\>O\316\t\275\030\302P<o\257D\274d\t=\273\244\2132>\375\204\327\275\376x\343<\234C\016\276\226a\260=\214gH\275\004\242\006=\323\307\325\275\362\307\367=\366\254w\275\214\261\273\275u\001L\274-\223\262\273_.Z\276\234\024\257<\036\327\247\274\302\013\316\274\336\336+\276R\017\315<\004\217\364\273P\n\255=\nH\335=\013f\256=\034\020)=\363\244e>\336\225\031\276\367\317v=\237\373?\276;1}\275\306\330\242=\273\226\217\275:N\237=!\034\262=\256\252 \275\203O\205=\335\254w=0\306`=6\342\000\276r\246\033<[\220\316<\032\371r=\261\334+\275?R4>@.\265=\255kO\276T\024\261\275\264\026\330=S\271\274\275\306D\014>\301\320\316<D\0009\274\002\241s\2769\007\243<\035\202w\276\032\3651>\ti\222=\036\266\304\275\354\354\331=\366\250\370\274\rBn\276z\265\231<:\3173\275y\264;=\331\200 \275\202\376\004>\214\244-=\263\207\3009\303kW\275x\0310>9\003\301\275\364\3601\276A\203A\276\300\037{\275D\371$>\211\305\013\276;\354\221\275\375\375\023=\243Hx\274\376d[>)\036!>\250\326\206\273 \371\036\276\334\277j>\343\326e\276n\024\311=f\251_\275\323m\021>0:\231=\262I/\276\210\206\374\275<B\360\275\005\331]\276\314W\341=E\007r\276\212\220\216\274\254\242\226=\227\365P<\334PA\276\025t\"=\274\234\313=jtW\274\271v\224\275\347u\001\276\340R\336<\314\243\343\275\306GA\275\357j\300;d\236\252\275h\314\270\274\311\323\364\2755<\216\275A\"\234\275\221w\356\275,\023\201<\010\225\356<\215\324\311\274<M\216\275\214\345\021<\306\376\201=(0\002\275\016ov\275\341\261\271\274Y\257$=\260u\320=\007\037\263\274\020\037.\275\343\254\241\275\364\257\257\275Wx\010\275\223g\265\274\354<\014\274y\232\216=\204@\002=\320\340?\275\006\2456\275\3763\253\274\370W\303;\350t\301< \262E\275Y\204\247\275\256\323\255=\340\335\000=\020\377\237<\304\264\201\275\035]\247\274\210\010J\275IR\240=\2668(<\360\226\217\274\240\212\301\275\374\200\237=\020\0031=\252~\010\2751\014\240\275jd==\0176S=A=\337<r\252\332=\334\030\305=\312n\326\275pq\255<3\360\007<\336\261;\275\256{\210\274\330\331\211\275\346\005k\275\320|\026=r\340\257=G\315\234\275\331Y\275\275@\371\306;\022x\342\274\307|\221<A\371\300\275\013\322\224=\310|L=_R\t\275@\004\340\273\370\222\016>Q\244\357=\235\007\200=\022a\324\274\201\270o<\334C[\274\274\212\331\274\250\365&\275\205\337\354\275\024A\261\275|\370\300=:\334>=\344\373L\275YP\352<\016\222+\275\366^\021=\352\316\364<|YZ\276\241\211\373\272OY\300<^\272\214\276\353\361\006=\353\rR\275#\270*\276\177\031\223<\312!\342=}\331\245=\336_E\275\307`\223\275\022\300&\276\244\344\322=\036l\253=\311\025\344<\007\221\270\275\0065\200\273\337\352\021\276\377\314\006\276lF\360\274S\003a=I\322\265\275D0\006\275$\257\177=\t\362\'>\201\225\010\275Cx\021\2764\373\247\273\324\001\002\276\325O\303=\234\213\254\275k\037\366\274A\344\273\275M\016.<\326|\322\274\027L\031\276\030\326\346<w\200 \276\254j\016=Wo\366\274\333\342g=L\305\205\276\374\255\024=\223\324\222\275\272s\334\274\235\213c\2743\316\362<&\270\272<\270\221\247\273j\235/\276\310\234\306=\275\366\262\275\300q\323\275\376\341B=\252\214\264\275\250\003\342=\005\020\225=\230\374\212<\322 \014>\244\216\374\275\021&\001\275\313$\302\273L}\231=\340\257V\275\225%2>\036\262\267;\3417\324\275]T\371\274X\217\206=Xi$\275\017\303\004=\331<\321\275S7\021>\247\361B=\001OE>\303N\301\275\314\n\247\275\256eU=U\376\272\275Z\342\357\275\320\327\032>\032\034\010<]V6\275zY\210\274\327k\014=\210\371\232\273\333\006\346\275\242\372\356=!X\270\275\331\271%>~\026B>\356\031I\275\370\266\026\274o\340y=\352\217-<\276\3346<\n\371U\275\310(\003>\226\020\200=\033\376U\276\242\020\256<,Y-\275\344[\274=\351\275o\275\264\016&<t\273.\276\232\322\211=$n\302\273\032n\215\275\323s9\275\315\r\270=\006k\230=\273\322\367=\004 \256=\322\352D\275L\3367:g\014\204=%\376\204\275\301*\225\275\'\266\304\275\3326\177=ZU8>&\013\317\2742\304\212=.M\013\276|\242\213=\346h\322=\373Y8\276B\003]\274\376b0\275\333x\221\276\257d\303=\337\001\256\2752\316\036\276\022Z\270;M\010\027>OE\002>b\234\221<\256:\231\276F\266W\276P\241\207=>\"\305\273\316\363!=\350b\265\274\376j\345\275\373_\365\275\024u\232\275\037\027i\272\216\333J\271\355\'?\275\032\017X<\330\220\363\272\332\002\342=Qe\321\275Y\016\263\275\n:\347<4\364\022\276nw\367\275\352.~\275\260\r*=s\205\276\275\306p\232=\007>\t=\231ar\276\304\376\346\273\377u\200\275\314\344/=\017^X\276\222X\252<\220\024\341\275\024k\003\276\325\035\347<h\347\265\275\327\213\273\275\300\374\320=\004(1>j\205J\275\317B\242\275F\021\257\273\010\006\237=1;\300=\003\274N<\257\016\304\275\276T&>\204g\253\274y6\252=xI\022\275fP\336\275\3074d\275\371Sc=\177\303\177=\314\255a\275\372\036#=]?=<Dy\326\275\210\330\347\274\214\227)>\t(\343<\337/\310<q\373\363\275?\000\243;\273T\024<Y\2017\274K\257<\276\331\245\227\274i\332)>76p\275|\222Y\276\016%F;\370\377}\275\257A\377\274\237\262\273\275\016f\262=p\200\230=\353\231\006=B\364\243=\214r\032\275BZ\275=\230x\026>\325r\244\275\377\325~\275\244\366\364=*\223\020=\224\321\347\274b^\215\275\256\323\233\275p\233\240\274\\\"\231:y\240\303\274\365hB<[\314\013>Wf\240<,4\312\274\032\225\023\276\305F \276P1\224=\355\364\200\275\267\315\030\274T\273\230=\341\276\357<\034\202\330=\362\227\201\274;Gt<\335%\240<\316+\241=5b\257\275@@\217;c\352\221\274\232\266u=\020_\352=\276ea=$\247\027\276\372\304\020=\212N\330\275g\351\235=\340f\3439\0330*>m\370\311\274\2477k\276\346\2712\275\335\250\252\274\320\207\312\275\330\350\323<P~\213\274\232\030\340=\356\320n;\245\237A\275o\020H\276\234\'0=\350\034\021=\233\376\002<\203\317\032\276\336\230\231=\367<V=b\0176\276l\302\t\273\003\240U\275m\'\352\274\334z\030\275\003u\006=\324\221\357=\221I\362=]E#;\237\343\274\275\tX\013\274\230lY\275\247-\016=G\3603\275#\202\307\275\270\344\354=j\013 <\220i\267\275\222\007!\275u\005G\275\313\014\033=\024\324\251=\331\377\252=`\017\347\275|#h\275U\262\332=\273\367\023\275\002V\005=\001~m=(Xl<\022\027k=\026X\037\276H:}=\207\215l\274\260o\262\274N\253\214\275f\310\355<\334y\234=!X\271=\210\372\214=\252+\003\274\312\224\027\276g8[=\260(N\275\334\310\006>\244\'\307\274\027IL=+HB=9\317\341\275\366\'\307\275\236\240|\274\276\253\333;\220Mo\275~J\027\275W\216\314=\320\251\375\274\025\342T=_\315\305\274q\031\305=\022\263\367\274\310w\014>\t\026\335\275\256\004\002>>\000\357\273)X\025\275CH\200=F\235|\275h\r\227<\237\245\254\275\235L[\274R\001\205=\2407\243;U\305\036=\226\033\177=5\2244\275\372\357\324<\315{\256=\210\303d\275#7\022\276WS=\274\271\331\307\275k\360l\275G\256G=K:\000==0\362<\\\245\253\275\003T<=\340\0213\276\257\272h>\'\025\370\275\200*j\276;\346\220\275\330\320\267=\000\341\031\276Zj\332\275\273\337\272\275\361\266=>\355H\367\275\013\312\251=\002\3205\276\204\275\227\274\213\370s<(|\276=\366\003\267\275\370\326\370:.\204#\276\320\265l\275C\n >\2612^=\217\233\025\276/\213e\275\261y\024\275\375+R\276\"\010A<\035\375\346\275: \021\276u\261\021\275\262\203\323;3\277\020>\337\037\207=\310\230\037\275\375\037\235\275c\317@\276\240\366\353=\221\374\003\2764\366\r<\360\343\355<9\271\250\275\351^\321\275W\360\312\273/>\375=\315\014\214<\341a\220\275ze\003>i\333`\276\345\325\272\275\303\027n=\231i)\275\0319\032\2767m\016>\243;\320<\177\224\377;;<\214\274\246\212\033\275\263HA=\300^\202\274]\204\200=e\362\202\2740~\034>\354\252\023\276\217\371\310\274\316\370I\276\275\320\271=R\256\370\275\240\030*\275\354+\017\275g\340\246=d\003\224<\355T\016<\332\337\221\275\217\3117\275k\030\272\274LdN:\356\001\023\276\261\221\032\276\0227\225<l\225\273\275\230\304g\275Y\003\245\274\210\332\370<\325b\310<D\332\232=<\341\025>\343\313z<{\327\326\275\302\020\374<\231\205\211\276\217&s=\277\037\t\275P\336\345\275\027!(=\231\025\017>j9\334<\214\347W=\006\0073<=;\344\273\021u<\276e\364\001<\302\251=\276(n|\274\266\237\345\2749\267A\275\373I\010\276y\010\347\274\361\340\222<]\353\323<\332/\343\275\022\303\034<m\215@\276\"\271\201=\302\3138\274\320Bm\274\301\014n\276\364\251\354\273\360\2007\276\220\3342\276\237j\303\274\027\267\257\275\353\364\016<\217#\322;\260\360\211\275s\257\"\276\310F\002>D\366\362\275\356\220\260=\035\316\373\275a;\000>\336_\017\275\2554D\275\364~\200\275\375\302\221<\031\326L\275\004\307\227\274?\r\316=\370bq\2744\334\003>\306\270\226=\212\005t\276Mf\300\275-\325&<.\346\215\275\235\353I=\210B\305\274\215\264\223=\024\235\254\275m\270\326=\245N\t>\345\326\331\275\034[>\276\375\343\305\2742\204\251\276Y\252\205=\302M$\274\316\305\215\274\262\341\376<\255!\233>\346&Q<}S\034<\200\032N=\360\370\246\274\237\314&\276\241\340\210=f\360Z\276\272\206\022>?vD\276*\032\340\274\325\256\032\274\246\017#\275I\n0=G\177\017<q\022\035\276\216<1\2760q\206\276\036\257\t\276\354p&\276\312O\374=ywX\275s[z\275h\317\302\275d\r\242;l\201\257\274\204\220\316\275\t\016\320\275\341\2204\276\341\216+=#\377\021\275X_+=\262\344\t\276t\217o<\203\251\221\276|\322\031\275*z~\275/\275J<\"+P\275\372\220\370=\263\231\351=%=\344\274\036\212E\276\003Q\246=7\255\240\272B\251\232\273\224\361$=\340\322\242\274zb*>\315\204\037<\t\346\231\274\005\306\230\273\314\023\244\275\333\013\202\275|7g\275\343\373V\274,\231\257\275L\003\362=\231\264\231=\032\367\003\276\177M\260=Z_\301=\362\324\023\276\267\314><o\204\260\275l\333\304=\n\t\014\2756u\027\275\252_\270\275\364>@\275^\306\253=\343~\243=\020h\363\275\244W\311\274\023\322\230\275:jN\276?\251)\276oT\245\275\352\317H\274\2151\005=\257g\332<\014f(=\302\232\204=3\251\313=\365\273\014\276ReW\272R#?>\025U\024\275\317\370\032\276\221+\306\275\246\235^=[s\262=\277\360\306=\261\322\343<\225\201>=\3148\216;\377\3038=\225\272\220=\336%!\276\224\267\203\274lMU\274b\212\266\275^r\313\2724\020\234=v\252\344\275\227\nE\275)rb\275\206\3611=M\310\036=\336W\305\275\347\212\333<<E\307\274\005\243\006>\034\315\354\274\315\307\001=\245\353\264=\264\256\231\275\234f\322\274t\rc\273\320\320\024>6\251e<\334\351F=\224.\207\275\315\377\020\276\034\253J\275\316\216\316\274/Yw\275f\023\206=\233\000\252=\035M\016>HQ6\275\270\032\r\274\t\350\347\275^\230\304=\323\000\231\274a\306\216\273(\216H=\240]\317=J\021n=\2054k\275\325\320\272\275\336pa=\265\206\252\274!\214\225\275#/\337=\256\035\316\274\036\r(>\277\225\020=\326^\231\273\021\026\204\274a\004O\274\355,*\275\204P\277\274\321\266\310\275,A\265=\346\302\221=FsV\275\202\305\263=\345\356\t\276l\371\245=\035\306\\\274\031\354\262=\224\212N\2765\337I\275\255\002\232=\'K\323\275\315\264\326\275\032\303\215<\3476\360\2754\235\020=_\t\205\275\225\326\245=\326b\231\275g\357 =\353`\354:Z\353\034\274\246\241\217=9\003\016\275\300\240\013\275\356\376\311={\373\005\276H#\321=\344(\274\274\2214\306=7\003\235;C\031\310<\331\023\026\275\222\206\227\276YSG\275\264AS\275\212U\323\274V(\254\275\241\335\017=<u,>U\364\234\274l\211L=\014\321\037=\274\255p=\371\032\360\274p\324\266\275\003\006\225<J\222\030<8h\311=S&\246\275\"\002\215=\006\2611\275\374}\366=u\366\037\275\325\246\001=$sa\275\026\376(=x\311\034<\355\370\032\275\202,\033;\321a\237\275\332\327\203=\033\357\234\274^\245m\275\262\303\276=AL\017\275\254\347\247\275\314\270?=\025\310\335\275j\363\333\274\014\262\272\275D\276H\276\346<\202\276\023\263J>\325EO\275\213\242D\2765\374\231;\230\017\240\275\241\tD=\3512\323=\370G\266<,:\237\275x\003\026>&>\343\275\001\343Z\276\321\237\027\275\207\314\n\276\201\344\267\275\235\300\240=\205\375F=\264\r\312\275-:\377;\363\r\224\274\332}\314\275\026R*\276\340\233\t\276\234^\247=\\\256\035\276\271?\224\2768X\023\275\000\271k\276nu\215\275\212J\234\274\250g\266=\272\202\275\275\032\r\254\275\021\304\262<Oky=\r\335f=\317K\020\274L1x\275,\002P=1\r)\276\316r\t\276\313\202\206\275\020\275\200=\207\001|=\345\246Q\275\235{3\275\237h\371\275\347\244\231=\371\0075=n!\247\275kw\317\275@\243\000\275=\244V=Z}b\2762\243C>\304\375\017<\365[\353\274g/\213\275 \323\343<\315\374\035\276\303\237U>\035\244\017\275\353cm=s\372\014\276\334\013\305<\007\370\035\276g/\260<\270F\222\275\263\340\255=\235\272n=\376\247,\276\004\221-\276\240\037\273<22\300=\\\263\341=\234~\265\274\210\002\272=\3229\363<\207\"\271<\370e\323\273\202\002b=s`\376=4\331\300\275\230\346~;\311\363I=\r\310\232\275\246\205*=\354I\357=v\003\'=Qk\317\275\036\272\234<4\254\014\276t\374\254\274\320\3100=\277\034.>\366\r\366\275P\225\215<\277\352!\275\261b\330\275\331\002#\274\327n\300\275\244\264\017\276\030sF=\311r8>\"w\334\274*{\223<\314nN>\250U\214\275\337\257d=<\2763\275b\323E\276\035\302Z\273\372\363\264=+\366b\275\001\232A>\261\335\267\275\350:\312=\313\354\263=\357\022B<\2024%\276\262\221\342=\3501f=\330\272\251=,\3007<\020\000V=\2060\363\275\242\370\230<r\nX\276\200`\023>Nw\202\276\0005\310\273M\244/=\244\232\242\273!\177E\275\221\365R\275~\'+\276a\277>>}\021\020<\275\241\235=v\364K\276\262\251\305\272lz\256\274\2236\233\275\010=\032\276\311\247o=\252\260\240\274\232Z\230=+|\035>\342\302\014>\333M\013\276{\302\233\275/\022\023\275\213fp\276\210\377\255\275\351\247\213\275L|\315\275\371\267\231<\025s\000>*\265\001>J\032\010\275\327p\211\275T\235\365\275{\305B\276\205PN<\016\332D\276\344h\205\276g\345\376<d3\005=\237y\020\275\023n)>\023\001\303=f\220\006=\320\326\324;\313\207\004=bW\330\276\250H\022\275\327\270\025>\335\240\210=%nE\276\025\304\353<,\361\\=\355K\007\274z\236I\275\243Z\273\275F\331\236=\255]\201=\363\002\275=}\300\270\275$!Q>1\377]=\347\316Y\275\027sZ\276)\301\000<Y2C=\240\360\207\275\253\'U\275\032\206L=\246\320\272<y@:\275\311\261+=\303\250\207\275\221\\\210=-J\347=\235\351\253\275\023\017I\2745\352\345;\223\037V;\232\302\341=\305\356\254\275\220\332Q=\242\220\353\275\336\n[\275\205\253\030\2743v\270\275\277\2009\275\357K\252:\331\nk\276.\322/\274\365d\014\276\031:u\275\267i\r=\333v\007>\243\370R<\206\326\302<\360\221\315\274\027\260\245\275#\235\274\275\020\341\225=`\'v\275\022S\031>\246]\312\274\177\234\025=\177\030%\276^\236\277\275_w\027>aF\364\274p\250A\275P\021!=E,\323\275\t\223\t\276r\"\203\273\370\362\373\274y}\263\275\004hM=\037\036\243\275\367\235\302\274\332\030\221<\373{\311\275:\004\303=\233>\322\275x\330\n\275M\2216:\001\205]>\204\276\227=\370C\027\276\277*\303\274h\252T\275yKw<\262\215K=13\017\274\330?\352\274\371B\033\276y\r\023\275\336\007?\276#\031\010\275\232\263\243\275^O\264\275U\326<\275a\302\203\275!j\305\275^\000\n\2765\222e=\320[\275;\241YE\276\2253\316=$\274\273\2758\312.\275\337\021\240\275\'\361\017=(\276\006\276_\376\013=?\327\305\2757\034\204\274u\223\204\2734wS\276W\304Z\275\270\223\n\275>\0219\276\347W\010>Ko\016># \020<\036c}\276B\324\355=\313%\266\275eRc=\346\366\260;\032\230l=+\000\224\275\366u\035\275\227\355|\276W\037\014\276\304\373Z\276\020\t\347=\2351\005\276n\355\353\275-$G<\336\367\002>\242N3\276X\016W=\375\006\020\273\026x\"\276\231z\254\276d0S\276s\3360\274\360\374\311\275\243\320F=SS2\275\2230+\276\250\331\203\275\257\205@\276\263\2422=\005\345D\276F\305z<\345\261P\275\232\204#>y>\206=\220\257\037\276#\2755\276\005\010L>\343(\266;\0272\267\274_\243\265\274h\357\036\276\212N\370=s\335\314\275G\360\350\274cl\020\276\204\2332<\357&\332\271\020|\177=E4\271\275\177\266\022\276\033\362\201=z\353\303\274\205\230\233\274\2744\223\275[\374c=\342l7\276T\177n\274\312A`\275\215f\314==g\002\275dF\264\275\240i\332\275\235\"\266=\n$\035\275m\361\342\275\267^\037\276\231}F=\212\032\033\275*\036\t=\326\211Q\275\310_\377\273\006\314\324\275\271;\326=q\'\373<\007\035\017\276\335kH>rI\t>\030s\356\275S\330\026\275\300\335\221=P\301\213\274\0172\251\275\377\211\377\272\325T\372\275\351\312\365<B\247\327\273s\317!=3~\343\274\221x\240\275\264\370\322\276\352\303y>>\225O\276\211@)\275\351H\276\275\000\303\034>\201Ld\276\016-#\275`\273O\275\204\302\n\276k\202\273<>\361J>\255\253D>\300\007H>b]\364=\036h\246\273\213\305\035>\370\227\225>\204\276h\276\023\220\211\276\030\253\343\275\233!\312\274\210t\034=\254l\315\275\256\\J\275\371@\204\276\'u\307=w\242O\276\300\351\301=\256ao\274\245k\247=\300N\202\274E\353\270=P\3675\276\255\300/>\306\010\217>\254\370\016>\t\2318\276\345q\371=7\272\274\275p\253w=\376\322\215\276\014\005\363\275\025\\\r>\241.\330\275\276\215B\274dON\274\2309\353\274\006\340\300\275v,4\276zWd\276\270\200\204>B\252\370;*\320\210=\333\222\276\275\274\274t\276\024\346\005=\311^r:\r(\235=\260\275B;\026p\035\275j\367\262<\354\312\027\2757\255\203>\2177U>\006\242h\27593\020\276p\032L>p\225\270\275\023?\"\276\271\301\000\276f\0029\273&\300/><\256\367<\027\261\312\275\212A\225\274y\352V>@w\267=O\374\240\276Q;\014>#]R=\r@\037>\372&<\276\331vQ\273\237\235\313=/\356\267<\252\021\261\275\3361\020\276\200\217\257\276\310\243\274=\372\312\320=\202\343\373\275~\363\222\275\347\233B=y6\253\276o\271r=(\230\276=\2051\"\274\204\334\215\275\245\021D\276EZ\017\276\350B\"\276)x\372\275b\224d\275\247_\232=\003\314\027\276&+\r\275\355\214\\:\205\002\017>\232\276D>\372\214\257=G\017}<\266#0\276.\345\221\276i\0376\275b\374)\275\203\320J>\031\257o\276\203\225\010\276Qz\\>\262\357\332>\301\217\003\274\020c\367\273~\002\312=\204)&>\026~\014\275\266\300_\276\025\316u>\257\344\313<\206\230B\276\331\024y\276V\213\211=U\017\000\274\t\2329\275oU\033;\230\004\016=z\257\001>r.\215\274\322\315\313\275\001W\346<X\351\330=\342Z\273=\311\3710\275\304M\321\275\314\313\357\275\243\300\200<x6M\275\262R\355=\017\207\235\274\356\026\333\273\007\2545=t\233\010\276\027\370\023\276\031\203A>\022\344\302=\357\261)\276\031\"\323\275l\267\351\275\246\007\203\276\374L\266=\270\2058\274\255\316\211=\n=\216\274\236\251\303\275\374\311\272\276\237\316\325=T\250\273:~M\374=\356\235I\276]\324^\275\333\030j\275\226oa\276\324\324\022>{\231\377=\334\244\232=\264\221\\>\256@7>,\265\316=G\244\017>\001A$>s\314\254<\304@\233\276\331\372\024\275\227\340\025>;\320\014=\240(.\276-\210\345=\343*E\267C\033\004>m\001\266\274\025\215\270\275_\273\333\275\016\265\025>\315\203\243\2751\323\276\275}\016k=\247;U\276n\016\236=:\264V\275\312\347q=\220\301\277\275oh\213=Xo\373=\360\177\266=\340\207\227=\277\357`\276C\271\212<+6\316=\022\022\207\275!\236\r\274\226\010:\275P\321\224\275\325\214\324=\261\001\004<[\027\212\275\016_]\276\034t\216\274\255N{\276\\\3319\275 q)\276H\021\242\275\356\022\005\276\304\252\237\275(\205\032\2765\354\365=E\277\341=:UG\275\2606\363\275\213\357P\275{$\004=E\317\026\276\333\032\372=\006\241\317=\232\2304\274\032{#\276\260\217\220\274\001\266\247=\247\013\007\275\301\337\271\275\276\204\022=\017^\331\276\374\362\357=\230\342\345\273\362\271;=\247G\344=+_\332\275\024\333\265\275\343\035\032=o\334\272<PDE=\221\375\312\275\233\202A=\n\310I\275Q\252\022=\010\311\006>\344\326@\274[\227\365\2758t{\274\006\305\020:\\\244\224\274\313\030\t<\245@}=\334\354\272=\305\342\252<Ol\274\275\205\356\242;\216f\207\275\262_\007>G\257\251\275\243\323\321\274<\306\252\275\302\364\341\274\260e\301<\217\367\256\275\'^$\276\237\372\212=;W\177\275L\245K=\354\321\233;\255\010\370=H{\300\275\370\036\022\276\226X\302=[\366\265=-\2721=\202,I=\'S\250\275\265uB\274\302\267\312\273\347\241R=\253\244!\275\221z\310\27432\312\275\376:\327\275\340\'\342\2754\365t\275D\222!\276j\344\372=X\214\217=\343Y\323\275-G\014\276\242\371\242<\231O1\275\234\022[=w\374l;\357e\335\275\300-\203=fm\032;2\303\006<,\356\226\275\344\231\013>06\013\275\355\251\207\275\362q\306\275<,7:\317\265T=\252Ww;-\215\342<\330c\321\273\337\215\253=\242\004\026\275\266\r\014>\233\002\023>\314\032\276=\353rB>\313\370\261\276\030_\254=a\246D>\324#\205\276\006\020\021;\331\2303\276\261\247\320\274D\253L\275\t\324i\275\352\307\320\275~(\331<\353\215%\274\0176\221\276\366\2056<\300\337\366=\216\3367=\314I\240;\336\n<\276\240e\225\272\301\222\236\276\204\270\311\2756*_\276\350\371\204\275\224\275\314<\214\307i>\234\341r\276gR:=\231\\\330=\214*\376<22\356<j\034\032=\304\2618\276A}j\274d\331\302\275\321F\321;\311\364(\276\344\313\314<#\3647=\317\021\021\276\231\300b\276/\200u\276\033d\354\275<\276\006\276K\202\001\274\211\372\315\275\267=\226\275<\037\242\275X\316A\276\330\325\007>1\261\225\276\217ti\274#C<\276\330\016\222\276\211 Q=\\&N\276\ri\324\275\332lp\2763V{\276\265\177\304=\356\0256\274~\302\326=\221V\002\276q\024\232\275N\211\233=\375\357A<W\220\\\275h5>>\315s\314;H\312\271\275\037\'R\276fi\202\274c|\257\274\233a\254\274X\312\004\276w)\236\275\251\232A=\265\350q\275\227\020\020\276F\3114=\210\r\247\275t\241\201:\233c\366;R\237\352=p[\023\275\250\342\t=#\237*=B\353l=\265\002\213=\250\375\032>\242\364\025\276,G;=h\320h\275\304\007\271=s(t=M\230&\276CNO\2766\002\233\275D\314\256\275\370\3734\276\35047\276\347y\261=\340\354\276\275\177\355\226\275L\202\001\276\313;\341\275\032\341*\273\274\252\276<e\260\330=f\304\270\275\010P<=\331\347\n>\035\367\344\275z\267\367\275O\373\267=\335\013u\275\016\211\334\275i\255\204\275\025+W\275\255\317l\274\232\362\t==\324\244:rf-<\377\nW;\321\371\005>\255\217\352<\274\036$\276j\352Z\273 \371[\276D]\313\274\271\021\226=\374\265\277=\326\274\305\275\313d\336\274\204P\265=\033\024\315<Q\207\230=d\304\360\275\t\261U=\0012\366\2730\305\260\2752Y\234=4\t\375\275f\024U\275^\005\256\275*\017\016=\237,\355\274\034z\261\273k\016\252\274}\263\317\275O\330\374\274U\275\004\276v~u<t\243\202\275\267\206\206\274\003\0053\275\355\340\r=\355\236\233\274\013k~\274\315\336u\274\232\334\210=\232?u<\\mc\2755\206\247=\267p\353<\313>\000\275\302>\227\275\360\252\326=\013\220<\275[\266\226\275\2250\\\275\251\212\355<\022\225\177\276O\324\336<\205\232\267;\317tC=\367\177\006>\317\374\316\2751\372\250\274V2#\275s\027\253=\370\004\213=\266\312\243\275\212o\024\275f\\\340=\273\300\305\274*\242q=\226rP=\210\317\027\275\232\347\350=\007Y\224\276\313\224N;\033\031\202\275\252\031M<\301^\006\275\221\263,\275WF\314\275\245C\027\276\003\0240\276\345\304\025>p\363m\275\200\343\"=\206/\250\274\341E\240\275\020\"\342\274\276\226\342<X\317\245\275\274\237\246\275\360;\300\275\033\n6=\230\303\003\275\032t\340=\207\211\253\275-\2237\276\212\315\213\274#\266\330\275u\031\243= I\002>\327\330\n\275y*\207\273 Q\321\275b\027\213=\217\327\357;\334\030&\275XrQ=U\355\276\276\037\005\311\272\252U\277\275\337A\206\275\225O\321\274\262\007\275\275b\242\357\274\0025\355\275\344\273\362\275\236\376p=H!X\275>?;\275u\251i\276\266\"\240=\'\035\032=Ips<\374s\030\276\316\262\241<\346Z\'\276+\365\t\276G{S\275\371\353a\275\026\003\277;z\313\365<\220\224\242\274P\2125\275\"[\340\275Q\232W\276f\n\365\274\232\036(\276\201BL=G\003\376\274\277;\226\275\2419E\275\264\370\262\275`\031\025>u\317\216\275L\365\266\274\336\033O=\006\344\">\005\244X>\275:,\276\005\010Q\275z\215\354=F\340[=\352(\000=\227\321\376;\'I\331<\342~$\276a\3401=\321\252\002>\233e\207\276eU\231\275z-\233\275;\003 \276<T\260\274\202\366\304\275\302\237T\276Fr\272:b?\036>\335\314w\276{\007M=i\334*\2750\220\023\276\321\027\261\275\246\211\376=q\3055\276~\227\250<c\322\313\276\2412\215\276\301\020\300\275\233\014[\275\023.v>x\242o\275\007\262\375=;\253\356=\022\372+\276\346\267\252\275\251\314\273=31\334=b\276\334\276\027\310\201\276\233\271T<\346\2507\275\275\005\036\276\206\343\237\275`\271\245=P\\\037\2751&\006\276\320\236\203\276\364c\003<\303\r\2519\205\002[=\236\254\007>5\240+=$\036\356=Q\374\253\2760\020\"\274\377\221 =\347\210U\2763\377%<\237\246S\276\037\215\363<p\322\302\275\267\365\343<\244\305\r\276\365[\251\272:\243\207\273\261\357\225\276\275\324\217=>\004^=f\335\322\275^\347`\275\207\210\014\276P\305)>zW\206\276?]\354\275\036\003@\274@\014\014=\266-\267\274K,e>\0212r\276\002\313\321;\204\"d=\317\340P=RT%\276p\377\212<\243\3151\276\002\273G=C0:\2765\307\352<\3162P\275\240\351\021\273\220\320_<\372\302\343\275\217\234\317\275\304\273$\275\254\212C\275H\004\004\2750E\370;\326\313\300<H\210\203=\001|\224<\263\3670\276\"\360\205=\305\307#\276\266]\353;c\377\344\275\233\253\212\2768\2614>\220\336\214\276\216!\223\275\021C\t\276{\244\025\276fM\334\275(\370%>|uq\275d\265\'>\243\031\227\275j\374\022>\003\240C\276\342\274\247<\205\025\371<0\237\n\275Vdq=\310\014\304\2751x\277=\310A\340\275\204_J\274`\004\275\275\314:\277=\003\373\267=\365\340\306\276\2510\235\274\221\330\031=pR\010\274\350\035\352=\226Y\366\275*\273\310=+A\206\276\004\004\323\275\331^l\275T\304\t=i\364\321\275Y\2075>\331\210+\276\223\266\232=T/\332=\027\3341\275E\360\"\276\21573\276\263\177L\276\321\027\202\275\2440%\276<3\005<}\240\231\275A8E=\277\204\316=\376z\271\275\177Y\251\2754\311p=\305\022\217\274d\266\026\275\3434\016\276\016\302\342\275\335M\246<\362\211&\276\3743\345\275\037\027\270=\037w\002\276\333\205\206\275\373v@\276RQ\345\275\231N\206=\005WY\276\200g\254=\002\243\304\274\027:\205\275;+\246>\315\212\031=\020\3049\276\375\022k\276\020\000\006\275\267\362\273<\312\266\223=\026\026=\276\212\262\205>q0\020\276\245Z\332<G\t\312\275\324#\003>zP\360<\010\213\247\276\331`,=\274Q\372\275\351x\002\276\334#\257=?[\260<8\337\330=\236]\"=\332G]=\212y\375\2752\313\310<\311a\322=\177*\240>1\237\215\275\362\001\t\276KT =\326\235\256=\221\331)=\275\005\031:\324\322g\275\027\202U>\036:\310=`j\030>\352\356B>\241\177\256\273\273\206\007\276c\354\244=\253\263\256\275\244\227\'\275\031\021d=\211HS>\354\304Q;\372l:\276Y\232\327\275\246\361L\275\364\271c\275Zf\310=\337\274Z\276\361\230\013>;\300\370\274S\224\337=\237K\203\276\320\030\t<\322\376\227\275\005L\363\2759\220W<\217\251o\276\021\021\236=\261\261\037\276\035\003r\275[\354\361\275\034\n\217=\364\031\207\274\276\021\252\275\250\0342:qAF\275\274\"6<\021\1772=\327\360\351\274\336\324\223\275f\226\354;\221\242\327\274\226\202\354\273 \253\206=\312J\315\275\346\346\224<\323\304?\274\354\372\t\275F\200X\275\t\177\315\275\277Q\355=F\020\"=\316\340\003>\250\027C\275 J\025\274m\316\257={4\027\276[-\232\275\342:\n\274\303f\211\275z#\311=\337\373\242\275\270A\002=\234\231\371\275\233\372\241\274\0379,\275\202&n\275:T=\275\275F\237\275\037\333\365\275\234\331\205=\275\003\363\274e\3248=Or\221=\322E\035\275\325\352\202=\324Hk\275\310\363<\273\347)\003\275vt\272\275\370\300Y\275 \244\211\275\346\374\034\274(\310\376:\306?C:-\200\016\273\351\337\220<\307\372A=\025|\016\274\250\224\204\274\365\342\305<\341\264\200=\253B\2357\206\361i=\366\205\251;\335\3241\276\326\345\225:\245\t\372\275\267z\264\275\320.\'\275=s.\275LX\210\274\301S^=xN<\274\374\356\253\273\214\300\236\275E9\237<\3479O<\231\211\217<\010\213\307\275\025\371\253<\277$\232\272?\325\230\275R\347>;\263\307\201;\247\3140=%\231|\275\3066\3307\262\315\025\275\261i\216\275L\"\202;al\261<\203\313\225\275\330\217M=\316s8=\301\271U\275d\266\241\275\202\344\234\275\\v5=\326\232\034=\335\014\221=f\265\243\275\035\\/\275\316\234\225<\310Y\013\276q\215\305\275\025\344\357\275\0320\237\275\255\316A\274\02282<\351\224\244<\032:\250\273\347.\335<\253>N=\272+\326\275\320\\\214\275\262\3518>\217\351\237\275\'y\320\275\t\002\267\275\244T\235<\225c\000\273\220\264\343\274\214V\277:\372\213G=\257\260\260=\t\216\226;\340\241\037<\0177\n>\3416\240\275\335\017\310\272\233\364+\276\263\nN\275\246\035\244<x\330?\275h\266\241\275(\3219>\366S\\<\224eK\276\326\001\"\274\213\344\271=\254\261\304\275Z64\274\243(\320\275\337\334\206;\022o$=Hd.\274@\371\017\276\275{\301<\201\')\275\017b\'>\317\364\330\274O[\341\274\026\022+\275\245\361x=>\245\232=\274\005\301\275\206\244\257==\250<=tZ\t\276+Q-=\'\252B<\030f\030>)\221\271=>\322Q\276\371\nX\276\206\010e\276b\225\302\274\202Z(\276\316\253$\276!\223\322=\270\346\322\274\337\306\276<\327\250\006>2\323\025:\200\2541\275\331r}=&\220 \276d\243\200\275\224|\351=\353\221\273<\222S\027\275`\305\366\275\0344\027<bt\">\032\0346\2757h\004\276]\247\274\275\022\230\206=\250A\234=u\256\336\275\210Y\024\276\265\2351=\325\245\203\276-\313E<\021g1\276P\026\221\275|\246\235\274\013,3\275\303C\264\275:Kz\275&D\356=}qG\276\312\033\201\275\001\233)\275\261\211\277<g:M<\321\327\266\274\333?\366\274R\374\030>P\220 \274\364\352\375<\025\370-=\335\325\n\276\200\235\200\275\016\004\200\275\246\340\200<g\353\346\275{G\226;\316\2644=Y\267E\276\201\250W\275\307I\033=\236\374\373\275\313\004\206<c\276\236\273\204\324\215\275\036Q?=\240@\356\273\021h>\276s\276\227\275\355\226\250\2739\370\023\274\215+\366\275\340\355@\276\250\317\027\276[\0018<e\027\246\275\356\323\202=(\240i\275e\267\010>\301\206J;-\314\203\273\201\276\217=\237~\241=\255m\333\274!J;\2769Z\354\275s\000\321\274\374\r\035\276.\035\257\275\314\324\250\275\344\216\203\274\240\216\355=\035\253F\275:\030B\276M\264\217\274[\010\270=\322\030\001\274\251f\250\275\000\372\204\275p\351\320<V\200\277<\2335\013>\311r\202<\213p\036\276r\231\212\275ry.\276j0d=~=\371<\325\367\234\275\rW\"=[\351\321\275\370\225?>*\255\303\274\3775J\276$5x\274\005\251?\275\027\033->Nd\271\274\354\352\006>\212w\361:\260\241\237\273\226\344\274\273\337\256\265<G\342\000\274|\226\267<A0f\275h\020\363<CS\240\275\346\311\360=\352F\314\275\347\246\002\276%V\242\275\276\221\271\275\254~\314\274\304\rc\2754\351B\275,:\265=\262\031F\275\371\364 \274\034\033\202\275\224\245\006>y\306\335=\345B\367=\005\321\335=_\217\003\275\316\021\237=i\331\'>ggA=\027\374-\273\372\311\n>\231\357\333<dB\036={\201\241=\377\213t=\332\005\331\274\224\346\027>\324\342G=\312P\036\275\310W%=u1\005\276(l+\275J\004?\276c-~\275\365\274l=\255#\230=\360N*<\037\035\364=\250@\210=9\226\322\275\226/\210\276\275\001\333=\226\200#=8\375\227\274\025\305\202\275\203\002L<\360_J=\227[\245<\321p2\275\204\314\245<\230z\224\275#Ri\274|\366\340<\206{\t>\370\221B\275)\003\025>\270\231l\274p\252\311\275\034\360\250\274\326l\007>\376\254\273\275\031:^\273\247\037\260\275\343&+=z\325\356\275xZX<\002&\'\276r\237\240\272\3478\310\275]\344\006=\344\261P\276\243\036.=\001g\024\275\301\215\334\275\177,\000=\317\341Z=BKY=\215\351\342=flN=\377\246\220;\324\317L>k\347\024>\r\240\034\275\326)\250\275z:\220=\352\332\305\271\222\031\212\275E0\235\274=\367R\275\0019\244=k\347\266<&\265\000<|\032\021\2755\222\021=\332N\377\275R\t\363=\r\371\354\275U\220\221;|\337\340\2745\321\253\275\343\353\003\276\341\347\320=x\333\016=pRM\275q\2438\27617F\275dD\317\275\3750\224\275\212\352\212\275\320\355I\275\354\'\317\273\335e\355\275f\000\000\276:;\341\274\344\377\250\274\307\332\035=\244\253\000\276N\001%>\255k\357=\242\363\010=.\"\360;\372\035\337:\370\322\274<9e\033>(0\020\2749\323q<wV\004\276*\265\245=O\252\242\275\024\241\005\276\022\313\376\275\tgp=q\0050\275\003S\030\2749f\236\275j}\211\272\033\032\345\274\206&\002=\341\335\331\274\246\327\235\274\372\003g\274\316,\357=([\237=\030\014\t\276\266\256\344=>L\377=C\326g\275h\311D\274\343\267\273\275#\'@=\350\221\335\275\377\350)\274Q-\336=\301)\r\275\214\034\225=I\341\342\275?x\002\276\357VG=\367>)\276\223\230==6A\016\276\354`\021\275\361\376J\275\010\327\265=\212S\237\275\246\222m=\253\177\300=%dm\275(\260\341\275=\324\032>f\352\230<\271n\310\273Z,6\275\177\027\031\276 (\001\276\236~\277=\201\360\235\276w\027\027\276p\203\245;\373U\227=\022\205e=$\234\333<P\370\231\274t.\022\276\032\376\361=\0366\007\276\357p\205=\033T\311\274\225d{\275\212`e\275\205\216\027=\265,T=\305c\276=\007\341\373<\024\325\213\274K\025\255\276\241=\301=\0219\'\276\345W\353\275\234\265\037\2769\2051\276\356E\375\274\025\317\274=\340+M\276\256\325\246=\221\320\334<\304\222n\276\316\262P\276hM\366\274\272\302p\274p\221h=o\333F\276Y4\265;%\270\r\275\236\033\363\275\250\"\024\276R\324\000=NJ{\274K&\t\274&<Q<\320\255\322\274uj\301<\331D\213\276\262\215\364=\332\036\020\276\232>\260\275Ook\275\243\326\002>M\226\327\2750\377\201=\334i\277\275\316Z\013\276\341n\007\276;\0205>z\242\'=\2635#=\264K\346\272\034\271\217\275\217b\376=ZR\t>\206=r\276h\375&\275\225\332M\275\330\342\213\274\232\276\254=e\250\002\275\257\266;\275\377\001-\276\272\320\267\274yi\017\276R\350W\275\0051\034\275\306+\365;\372B\375\275[\337\341\275`B\231\2754A\252=!\334\320;^\030\304=\020:t\276\241\006\221=A\020/\276\252\273\305\275\353\035\204\275 #\335\275\txe\275[ \200\275\361XO\275N\232\346\275\274\312G\275ge\006\274r\321\030\276\342\320\231\275\017K\201=/#\'=\350\212<\276kc\233\273xJ]\2765(\304\275\223Q\244\274\365\331\240\275\267\0262=z%\004\274\034\372\335\275\203j\227\275@\232\205<`\345\260\276\351A\253=\375JT\276\3561\230;v\271\342\275\314\002\316=\260:\317\275\236\322\353\274\211\361U\275\220X\365\275J\375\234\275s\232\254=,\273%>DW->l|\205\275\360\235\245\274\220\253\374=\253\301\326=\324\021-\276\224+\030\276O*0=\005\320\254<\343\205\235=\270~q<\027\211\330\275{\221]\276\201\032\304=\363Mt\2768\373,\275\223\341\306<W0\003\276\377*\341\275Z\351\333=kR4\276W6\206=\0045J>\331c5=I\301\275\276*R\305=\275\016\273\275\271u\345\275\323\332\265\276\330\262\014\276\001\227M\274\202\260\020\276\204\037d=\364z\272<|\305s\275\265R\306\274a\314\255\276\251\343\242\275J\032&>\242\r\255<\006\321\202\275\030\004\020\276\2236,\276\323\025*\275~\220t\275\337\275\327\275s\326\004\276\210\335\020\275\020\001\350\275.\234$\276/\034\242<m\267\271\274\252\322\370<B\360\036\276\301y\355\275\226\3104\275I\036\236<^\274\225\274\276\276\004>\3541\310<\202\361@\276\n*o\276\202\3610<\300\313\235\275=V~\274\207\334\270\275s\350t\275rV2=\350^\250\274a\205\330\275\340O\275=%Y\364\275`k\201=\250\242=\275\222\265\200<\006\214\207\275\317S<\275qI\013=5X\205\274S\274\267=\354_\344=X\263\023\276U\363)\275\036\255%\276x\252\006>X|\370\275\351.\027\276\027\201\344\271=C#\275[K\333\275\373O\020\275qP.\276\002\207\263=\"\2308\275#\252\307\275H\\\002\275C\016\r\275\3016N=^\365\351\274\360\001o=\354\374+\276w\2504=\026\372\204=\n\213J\275\"e\342\275Z\207->\030\013\257\274\276\221\031\276\367\t\245<8\246?=tZ\213=\363\'\336=H\266r:\251\232\010\274\361\245\206\275\273\2047\275\226\016J<\210\250\013=\374\304\205=?A\301\275\016\362\222=\326\251U\275QRO;5[\001\275k5\r\276\376(L\275\225B(\275\216\363\002\275\231\"\327<\034\375\261\275\211\327\277\274O\376&\2757\177n\274\022==\275\323!\204;H\356\t\275!\r_<u\033`:u\251@=\371Db\275\250\326%\275\223\313\034=uK\363\274\234\316\361\274;n\252=\335!\274\275\005T\n\275\333\202\216\273\000\355|=\213\225\340<[eN\275\351R\331\275\202\216\373\275T\005\304\275\374V\256\275,+J\275Vt\247\274\303_\313\273\340)\250\273$\370\215=\351\361\315\275\355\313\205<kb\324\273.\267\246<\017\204\260\274[\344e=\333\222\002>\270\027\202\275u\247\032\275\221\331\301=\375A\241\274v\035\370<\340\364\204\275\227O\003\275+\3019=.\263\214=\236\031%=@\304Y=\"\2167>\274\240\207\275\205\337\310=\276V\'\276\334N\227\275\330\t\330\274\036\2307\275B\320r=\224\250\007>\244\331+=<b<\275\236\342M\276\215\371\303=\304\340\225\274\261\\\360<\021\006\277\275\300\376\332\275\235\251U\275/\204\201\275Z\252\232\275\337%\216=>9\003\276\007V-=\350\273\261\275\226\365\244=N^$\275Q\030W\272_\266\357=\316\272]\274f\306\014>\252\027\355=\346Y\336\275pU\373;C\211\020<\256u\361=\025\241\247=\270\250\223\275z\321\036\276iN\206\275\221h\207=\362\223\002\276a\376\357\2754v\274<\372\261\336<`\\\261\274\212\304\265\275\301\033\370\275\361\374j;k%\235=\354\3705=d\355f\276E>\360=\203\234\'<m2\254\274 \342\206\275\210j\004\275U*\036=I\014\366\275q\021\351\275\374\033\014\274\233\310K\275\tL=\275]^/\276\224O\244\2757o\313=\371\272\017>\352\3728>@\251\035\276\352\201\237>\3548G\275\353Z\307\275*DK\275\213\346\244\275\237\021?>\204\355\235\275\215\215\210>\377\255\374\275V\250\273\274\200\261E>\237\217\215\276\010ah\274\311\204\200\275\315T\244>F\266>\276\372-\216\273\031\363\320\2758\271\233\273Z+_\276\376\227?\276E\241\033\276oB\000>\360F\213<3Dk\276\334\336P=\363\023\220\275HyS\275\332\350o=\037\330@=6\t+\276\204\270\266;G\207M\275S\221\216\275\t20\276\271\373\345=:\375\225=\317\207\252\273%H^\275\037j\337=\213~\227<\243\200x=\274\210\014>F\277~\274`k\221=\216{$\275\363\331L\276\216\030\207\275\010+3=\224\367\202=\232 \033\275\316l\346<i|.>[\331\202=\231\307\023=\350\321\310\275\007D\211\273a\025Q>\340\367\035=T&\260<\354f\021\274\351\'\006>\274\273!><\266\201=\330\344\\=b\341n=x\353+\274\246\210N=x\343\223\272I%\034\276E\305/\275\376\340R\275\224\357\337\274\243\224\371<m\343\t>\260&\245\275\031\336b\275+\244\362=Hc\321\275\310\210\216=QW\353\274\007\273\236=f:\000\275\357;\261\275s7\257<*\256\276\275C\371\371\275\370\246\344<$~\201=\307A\241;\256Y\027>\036\n\277\274\270\3340\275\0332\t\275\330\2554=\340\007o\274E\010\311\275{}\t\276O\'\025\273lP\354\275/\324I\275\350\220\366=*\360\321\274\2666\221\274\"\331\300\275\351\365!<=\354\217=\312\345\222=*\200^\274 C\257\275\227{c\276\215]\224\275\307\316\230\275\354\305\232=\307\324\241\273\346#\002\276\361\340\345\274\026?\331\2731x\371\274}Yr\274i\'\206=,Q\320\274\004\315\364\275X\251\341<s\311\334\274Y\037C\275I2\013>\201\341\006\276;\363\226\275\n\2676\276\013\312\303<5\275\307<j\310\364=\245u?\276>\031\271\274y#\221=\266]\352=\224\246\317<\234\035\026<y@\224<\327M\223=\230+\237\275\355\001\266<\024\270;\276vu\031\276h\236\322<>\310z=PX\246<\021v\266=:\252\332=_J\312\276\2118\311\275\360\250\027\276\234\375\204=\207pb\274\252\315\014\274\202\231M\276%\270\244:\202\304/>CHg<\271\353\267\274\032\215\364=\372\007+\276\237\206G\275\236\000\373\275gm\326\275\006\310O\275\216\237;\276Bq2\275s\365\227:\321\376e\275\177JH\274\267\345\205\275^\353\270\276\375`6\276W\000V\275\236\202,;\303\275\350=n@\035\276\263\357\013\276\013[!\276\021\031\345<\214\001\235\275t\027\323\274\210\343\331\273\225\253\207=\353x6=/\n\364=\023\255\357<_\226p\276\240\330N\275.\t/\276\202\017\026\275bI]\275\377\n\275\274\262\311\206\275\215Po<\373\327\014>\014C\002\275\207\205(\276\320\2478<3/j<\303\255K=\223\201\353\275\324\324\207\275NC\244=\r\006\024=\301\206G\275\205;\203<\311\020\177\274\225PF=}\345\222\274\000\315\204=\365\211\225\275x\233J\276t\310\316\274\232r\360\275\t\203G\275]\003\370\273\n\374&\275\316-\032\275\334J\034\275n\204\024\275\375\223\n=\207\325\377=W#6\275\327^\206\276\221>\210\274^k*\276,Y\347\275\001\266J\276\031%\200\275\027=6\274\2439A\276\263\302\215=\371O\351<\272/\306=\374\312\260\275\031\276\237\276>d\322\275\024\317d=g\353V=%K,\276\371\037>\276g\357\001\276\004\217\252\275\201 \212\275$&\215\275\'\027\373<b-\221\275)\000@\275e\322\371\275\016w\206>\365\367\021\273\315;\364\275\007\342P\273\314e\315=,\240\241=z\260\223\276vK\252\274\337g2>\257\373\204\276Y\215P\274u\346L\276\331\246c=\233\247B\276\314)\003\276\350\345y\274%\224\232\275\351\366\303\275\234=\000\276O\031l\275\335\307\244=\251b\226\275\321\004.\275\200\346V\276vYi\274D\222\322\275\024\003\264=\262\277-\276\345\320\006\275\251\357\333\275\216\'<>{\200s\274\353\255\342<\361\017\255\2741\306&>z\277~;\355\027\304=\300+\301<\344\340F\273Zj\006\276\342@\333\274\247yb\275bo\323=\342e\352=pR\324\275\264\312\n\276\315A\014\276\340\200)\276~\323\213\276H\303/\276g\336@<a\3662\276\231\244\233\275\026H\361\275N\353\206>S\331\247\276M7\317\273#\344<\276\035\307\202\276\222\261\006>\\\035\312\276S[\204\276\017\240\344\275\276\327\253\275\026\260l\275!/\020>\026b\314\275\026\334\r;\337\"\336=\017\247\210\275r\300\013>\210X\317=;\212(<\013\240\212\275\261\230\230\275\317$\330=f\250\212\273\241\031\264\274\312\336+\276A\356\t>1\311\323=\021\374\265\274S\221\025={h\352\275\372{\312\274\235\034\317\274T\005|=\341\253\021<-\214_\275{\034\t\2727\346\233\2765\307\357\275\364\024\311\274\270T\024\275\225\350\262=\2170\326\275\254\316\366\275\335\234\226;\277\034\237\273\021\210\270\274\370\020\243\275\010#\251=\243\302\271\274q\364\035\276Gar=$\371\307\274\\\246\216\275\230\223\223\275\"\237\326=m\212\231=-\317A\275\031B\"=\253EN=\313\375]\276\333.\t\275\355\250\320;\014\332\227<m_:>J\234V\275\230\2108\274\'}\204\272R\"T\274\'\202G=\377{\000\2763\0257<\2647\263\274+\315\206=\036!\375=w.>\272\300$S\275\261\030!\276\342\313E\274\306^\020>\275\177y\276\373B\252\275A\007\031\2753\205\225\276\2774\007\277\t\237 \2768\026\270\275H\225\243\276,`Z\275a\017\213\276\236\245\323\275\354\237\031\276\211{\340\275\035\177A\276\007g#\276\270\243\221\276[aj\276\356\341\225=P+l\273\034\n\201\276\263\360\027\276pT:\276\201\263W\275\343\\S>\244\262U\276\210\301\213\275XT\311<\213D1\276\204\030\227\275_\257\257\276\354^\234\273\035\263#\276\014\230l\271IW\227<\312\303\203\276\223c\342\275\343\362\335\275\013\372\374<\033\023\223<\271}2>f\022\202=+\276|\276\016c\333\275\245\263\031=\003(\325\2757\224\200\276\016\206F\275\033H \2769\316$\275\216\006e\276\034\3247=\036]\311:K\227\371=72\026\275\364\034Y\276\034o\367\275E84\274(*\271=\260\364\244<\t\257\003\276Qb\225<\2745\237<\267S7\276\031]a= \005\304<G\364\244=\331P \276\336\305[>\343\241\203\275J\270\004>\010m\177>y|\256\275\257\225\001>f1\027\276\320\327\323=p5\305<A\003\372\275\217]i\276\321\355\210>F\246\006\274\316`\342=\226\354\\>\347\322\363\274\036\352\302\275/~\237=@\025h<\266p\370<S\226\226\274KM<>\365\241\270\274S\227Y=\020\354z=Y[\036\276a\001\303=\207\364Y=\374/\024\274\225\037\345<\373\241\244\274\317\3731\276y\230.=q0\300=\241\263\'\276\024R\252\274\247\216 >W\326\250\274D\037E=W\243K\276\2332\016\276n\255\377\275\323p\300=\376\366\206\2750&P=\332\334\030=h\235\214\275\027\211\374\274z\211\352<\310\026\243\275\0331<\276\377r!\275v\224\212\275\027(L\275v\350\351\275W\321\234\273n\220\376\275.\355\004\276n\0209\276x>\235\276\003Ic\276\203\000\317\273\211\360*=\224e\202\276\026\275\203\275\037\275\332\275\324r\316=\026 \313=\263[Q\276\\\264\300<\372\344B\276x3\202>[a\373=\252\030<\276R\224\351\275\024\034\230=\022\'_<!\313?>\225\373(>\"0y\2763\376\320\275\273`\321=\031eD\275c\271|\275\023\266W\276\236\t^\276\t8\370\275\353\313\"\274\020\"\213=;\302M\276\002x\252\276\252\336\237\274Q\323v=\275U\230\2769\247o=\276\021\204\276\332\232t=K2R=[\023\000\276\371\222\220\276\202<\034<\315\350G=\237fD>\302\203\355\275\376 H\276*6\025\277\335\2113>{\207\036\276L1g\275\361\346\231;\203\274X\276\321\235\246\276\372\266\010=\377\256Q\276\220\016\215\275<\264\351\275`X\022\276D\216\024\276\335\241\023\2762\264#=\202\352\362\275=dI\276\337\334l\274\206\362\214\275\r\236\351;\372z\210\275H^\340\275\203\351S\274\245\r\227=k\'\366\275\241%.>\270z\277=\323\225s\275\260\266\335\274x\335\211<\'ve\275\304;\006\276_O\337\274\357\001&\276\006@d>\234\030\256\275=T^\276\'\363\315\275\302\201\264\275\037\372;\276\203\263\337\275y\235\336\273\252\202\340:\025t\343\275\373b,\276\357\254\210\275p\267M\275W\341\256=\272RA\275\262^\027\275\320\016\377\275\214\264U\276\261-e=\211[\034>W\252\337\273Y\276O\276}\205\003<]\215C\276e\016H\274\307==\275\272p\247\275\255`\222\275\3230P\274\201\350\037\276\202d0>\340\274\t\276\326\244\271\274>\t\225\272\00582\276x\234/\276\352`2>\341H\036\276\017\347\r\276\'K\016\275[\364\357=\347V\211=Xy\n\275=@\226:*\205\267\275t\333F\276\335\350\204=\245\350\215=c\317\354\275\224\225\276\274\032;\034=\010d\031\272<1\002\276\322\2212=\214\362j\275P\233\352=\005\366\021\275`\270>\276M{\002>J\032|\275\317J8\275\367\004\002\275\317\353{\274\022\222)\2751\251I=\211\257\010>\222L\261\275\236\237\267\274\233\":\275\356\320o=\"\354\016\276?\310\210\275RE%=V\0218\274*\306\247<\277\374\320\2751)\017\276.O =\027\303\200\274\363b7\276\303P\202=\365\373L\276Q\000\031\276oz$>D6\221\275X\200Y=\344?.=X!\265\275\312\243\022\276e\236<\274M~P\274\333j\364\275\033~Z\275\267\215\305\275&\345>=\350\335v:<z\026\2744\267\326\275EpP=\275Q\032\276q\217)\275\355\322\373=N\250!=5\321\325\274\255\203\264\273\236\273O\275\314\253\232\274\005\257\314\274\220\256\270\275$\331\230=\376\242f=TC\370=nd\254\275\033\252&\276\240\375\177\274T8\214\275\335{\017\276\226\273\005>\343\262;\275\370\026\346\275\230\310\244\276Bse\276xz\362\275\311\322E\274\351\354\030\274\003\334\264\274(\303\336;\351\233\307=\330\247^\2751\251\020\274\000\232\006\276\346\246\263\275\267\"\003\276y-\332=\317\220>=\032\320\002>\257\261U\276L\340\202\275\263K\204>b\022\251\274\231\244\335:\255\334!\276H\351\330=IE\321=\233\001\343=\207\363\354\275\"\236\317\275!^\237=\242\005\360\275\226\033I=\251\273C\276D\251&;\300\356\205;|\t*\276\356\024\010\275h\003/\276\225/\264\275sTF\275\362o\265\276\202#\035>\310\237\210=\216\212~<\364\232\266\275\327\277y\275lLH\275-\201\016\276\227jc=\247\334\206\275\n:\016\276\027\031v>(H\243\275\270\330\017>\216\017\351=\032\342\032\276\036\034Z=\035\017\327;7\224\311\275\273\273\203=\347B\344<<>\364\275!\320-\276R\357\331\275\324P\240\275\323\326\305;wv\023=p\212\217\276a\243=\273\341\376\371\275(\261\026<YF\035\274S\213{\275;[\354<\027-\237=\367!E=H\257\367=@4M\275\315\202q=\037\002}=\017`\345\275\036\037q\275\322\301\353\274>\211L\274\256\257\000=\233;\307\275}&\245\275\013\364\020=\022\206\024=\026\330j\276g\362~=\366\"\000=&\3606\276^\251\370=\374L\331\275\0306n=\0301 \275\264\300\335\275\345\3515\276\242\2474\275z\264\'=\261=\327\273\376\037s\273\347\355R\276\326\037\346\275X\260\365=\224\306+\276\354\375\004\2765)/\275\354d5\276\203\324\337<\312\275\327\274^\233\315\274\323\215\300\275\265\222\240=s\223g\275\265\010\014\276\304c2\274P\264\244\275d\026\215\275?_\032\276\267\026[<\017\017-\275\245\340r=)\325\222\275\276>\001\276\326]\327<O\203\355<\027`\031\2762\033z=?\345\212<~W\265\275\327\335\334\275\330\210c\275\207&\244\273\022d\244\275\333\010\334\275\342\013\222\274\034ZM>\243\027\333\275\034\2070\276\213\215D\273Br\000\2757Z\243\275|\317\020\276\360\035D\276\315tQ=\313(4\275\255\013%\276\374M\345\275o\037\246\275\026\237!\274\301\220\216;\354\325+\276\200\005$\276\037i\235\276\010\023\037\276\210x\235=\322j9<\t[\003\276\027\362Z\275\217_\331\275+\341M\276sn\030\275G5\271\275\234\316\026\276)\000\355\273\321^F\276\037\307\321=\252J\225=\302\261\336;\313t\'\276\300x\002\276\216\023\250\276\005L\371=\303&\216\275\340:\377\274_;\322\274o\036u=I\357*=\214x]\274\245\360\245\273g\203\305\275\223\263<\276:NY=tY\344\273\224\001\233\274s\372G\275\313L\322\275\273\306\302\275\264\013\224\274\251\372M\275;-\252\274\340Z%=_\233\001>A\362Z\276\023\335\353<v\3261\276a\324\225=\263\317\225\275Zi\333\275f\3732=Q\350\214=\374\010\210=\370\341\241=\377\364\275<\233\005K\275V\223\351\274\2232\023\276}\305\220\275\342w\350<\365X\250=\204S\231\274\261\263\006\276\364\253\252\27564\316<\001^\n\275\321\313c\276\325\352\025=\213\354.\276\337}\337\275\324\327\246=C\313Q\276\261k\227\275\251=\241=\0334\003\275+\350\025\276\204\351-=6G\241\275\377\317\025\276\307I,\273\231\177\024\275\3452\325=ZEE\275\322\261\234\275\310Z\003\2764\204I<C\014x\276\3413};\211M\245=\2141\247=/\274\200\275F\207z\274\035K\230\275\236\004\330\2751\312\034>q\366\177\275~\016\375=>GD=\255\014\255\276\005\352\025\276\334\352\n\276\021\036\\\276F\361\014=>\036\007\276jf\004>\035\210\226\276F\377\020\276\3723\010<\270\237\022\275\320\322=>l\252)\274j\325\226=k\331\330=X\221\230\275\2051\327\274\357\372\231\275\371\013U\276c&W\274\207mz>\360\236\336\275\030U\323\275\033&\306<\270\240\027\276b\347\206\276\301B\271=C\264\201=\254\314\225>\305\351n\276\0164X\276\274\2120\276l\0032\273\352\r\315<\r\265\310>O(\321\274u\006\213<\314c\233\276xl\273\274\203\355|=\377\037&=sU\327\276\322e\301<\275\373\204=\023\326m<\256\006Z\276\251\025\246>\355C\202\276\3157\200\275\324+N\274\253\220\315>\240u5>\310\240\275\276\237\t^\2762\355T>H\023\242=+7\014\276\035A\\\276\264\026:\276cI\031>a\204K=\226\213\226\274\324Qg=r\014->\260=q>\212\\\250\275\317\020\244\276\272\207\200\275\030\262\3149.c\023\276\247v>>\247\264\263=\302\362\327\275\234\212o\2764ft\276\361Zo\275\272\311\313\273\302\023\274\274\312\243\302\275z\330&\275\023\245\005>\307\310\205\274\022K\236=\351P\201\275\262GE\275@\315j\276U\214\034>Z~d=\207%\r>\373xo\276\236\332\256\275X*\224>}~\032\275\2071\312\275\301s\033\275&\337\366=\316\334*>\373{O>\333\035_\275mY\242\275\200\2651>[Uk\275\271\t\016>^\300c\276\327\2013\275\222~\307<-\240\274\275\023\206M\272\316\035\377\275*S\024\276\336@\013\276\354\373\222\276\230b\320=\362Q\366\274P\2740\275\323c%\276\252\331\326\275\315\316@<~(\253\274\233\210\241<K\346\221\275X\244\245\275\002q\005>z\374)\276\370K\323=@.\316=5\271Y>\331v\236=\004J@>\213C\250\275$\345\216\276\344\277t=_\366\343\275\t\306B\276\211\217\220=\024\374\253=\0146x<bc\323\275\372c\027\276$w\211\275\244\273\007=\202\023\260:{\350\002\276Z|\251\275\351Z\366=\375\323\003\275\305\032\024=\035\264\332\275}\351\026=G\264\007\276RQ!>W\2157\275c\227\017>\"]$\276O\270\370\275U~c>\020\255\270\273\241\360\276\275\000\371\321<\341\tK>\337\'\027>R+F>\212\300>\274\3010H\276\273R\275=\310y-\275\232\236z=\032\226\206\275\016g\023\275\257f\323<\333V\257\273\003(\'<~,\275\275}\376\037\276\3023\252\275\270\\\335\275\243\335&>\001\232\000>\362\352\016>\006\006\246\275kG\005\276\230\272\266\274\215WX=\2743/>\377\252\206\275&@\212=\324\225\322=\312\005\233\275E\227\242=\201\236\027\272\346zh\274\316p*\276\263\244\247\274\020\370x\275\202<\265\276\022\013\267\275\252\002\243=36>\276O\001\017\276\205\352\252\2756\216\330\275\0163w\275\321\311\260\276E\261\234\276T\254%\2757\304T>\365\343d\274-\234q\276\006\354\223\275\\a\211\274L6}\274\371\342\312=h\206\027\276\352\312;\276\344]\211=H\254L>\374\033:\274\363e\034\275?\211X\276\037(\323\274!\235a\276\254?\034>t8R\276\027\003\300\275\247\330-\276\332\221\200\275(\222\205\276j2\310\274I\210*>\373\3572\276\000\033K>e\315D\276\226\221\351\274\226\304\014\275[M\020\275\323\325\321\275P\007\265=J\243\347\275\0045\013\276>\371B\2744\2528>%\367\214\276hl&\276y\216\231\276\276\r\217\275\006\021K\275\317\013\214\276\205\256\004\275\002\375K\276\301\240t\276|\223\317<\362_\314=\227O\030\276\373\220\323=\247\'\n\276S\322\246\274k\345\244=\275\272,\275H\365 =\202\237&=\213o3\276%0;\275\327T\257=\241\345\246\275^\303`=ng\014=\010\314Z\276\334p\273\275}L*\275\275\027 \275~g\337<\3717\253\27589\227<\017\210\220<>\274\r\275n\002\223\274\r\263\213\275\3258\026=\224\226&=\317g\312\275\224A\310\275\010k\313\275I\374D\275_\310\031=zH\036\276ET<\275M\350\320\274\031l\371<\343\264\017=\313(\351<2\241\321\275e\376t\275e\250,=)\337\232=\300Y\337\274L\222\350;I\243\355\275}\223,\274E39\2741\\z\275\2328\226\275\033\274\207=\n7\376\2757\354M=\211W\232=tx\252\275V\371\225\275\034\000\237=}\205\325\275\014k}=\375Iy\274\\H1\275\t\001j=\177\340r\275s\322\313<\233HY=-\203\306\275\240\271a\275\245\307#\2760\274\246\273\362u\361\275\300j\254<\366\004\203\275\025\340\001=\036F\247\275cP&\2762o\236\275`\215\364\275O\301\025\275\342\363\215<\310\2069\276N0\000=\352p\322\275\027\347\350=\356\352\255<\326\266\333\275j\316\235=p\217\370=j\033\"\274)\276\233=\0379\316\272\320R\013<\212\000\034\275\023\006\223\275e5C\276\367\247e\274\177\374\204:\272\340\330\275*.m\274\373T\024\276\271~\004\275\360)\306\275\3611\237\2762\212 =[\272\026>f{\352\275t.h=\202\334\265\275sd\200<\027=\332=>v\237\275\276\343\244\276l\2618\275\024h\360<\330\236\243\274\203\325\306<\240z\036=\350Q\246\275g\214\211\275\306\355\372\275/\237\271<`\242T\275y\021o\276\000\245`\275\213 \252=\030\346\222<B\365&\275\373\341a<\016\177\351\275F!<\275\205\274w\275\226\351\003\275\202\343k\276\020\222J\2740C2=\351\\\205;\277\036\235\275\026\3730<m\361\352\274b\304\350\275\330B\002\276U+\230\274\250\232\315<G\303\016=\243}\004\276\227\335l=\243j\014\276u\345\031=\355\232\031=\301\226\351\275\376\222\001\275\205\306\005>\347\307\211=\354\345%\275\277\rq=u\361\222\275\'IK\274\363\254l\274\346\013\006\274\r\r\301\272\0320\340\275\242\363\276\275\340\031L\27653\315\275\242\205\276;\271\223o<z\256+\276\"\344\026=\326\234J\276$\0379\275\022\307\221=f\325)\275s\366\312\274\242\013\246=:1\372\274^{M\273,\310\214\275\345\367\244\275q\375\265=;\255\201<qm?\276\243\237_\274\262)\354=\345\177\376<\334\334\033\276\246(\033\275\264\237\207\276\"\357n\274%\316p=\224C\270\275j\004\033\276\315\226\375\2745F\210\275\265\022\021\276i\2420=\217Y}<\271\035S;\264\0321=T?\000\276\027\344\344\274Y3%\275\377Q\220\275\300#\253<\373\320\020\276\260\273\021\276\202Z\241\275%\026P=s\022\003>9\334.\276\1772f=\276O\217\275\244g\367=\326YK=\213B\'\276\004R\323\273\034\311\243<\271\2218\275\215\\\230=O=K\275\263\324\310\275N\372\334\275\224\004\034\276\270_t\276\2018<\274\325G\016=v\022\256<\200\327\246<\313}r\276\216\242<\275\356S\273\274\267\221\211\276%\341\347=\353\006T>@\330\252\275S\202$\275\23100\276U`x=P1\001>\350p\215\275\002\005\312\276\362d)>\252H\244=\302\236/\275d\351\215\275\240\335\371\2743\003\341\275=\347\254=\021\214\362\275ZE<=\216\322\203=\222\327l\276\363\'-\274oI.<\320\371\302=\343\316\014\276\231\225b\275Q\234\031<\3144\325\275WVY=K($<\254\2111\276\215\356\034>Dj\223=\366\331\256\275y\222\230\273\216\246\247<v]\355\273\324b9\276\325\264\222=\263\252\251=t0\202==\262\216=\237p\035\2763\026\253=\357HN\274l`\212=HPg\273\277\361 \276\\\214\014=t\272\316\274O\372;=\'\030\306=\016DQ=G\327.=N\324\261=\321t7\275\247\000\357\275}\004\035\275/\020\273\275A\r\205=\256\013?\2767\304!\274f\267\226\274\031\2521=\300\366\257\273\351\364\2119\206\331\212\275-\233C\275$\230\264<\237\200\301\275\277a\323=\221f\354=[a\200\276\263b\t\276x\023@\275K\340\211=Rm\307\275\301\373\t\275\343R\223\276_3\216\275.\361\003>\271z%\276X\025\014\276\031\272\350\274\306\222^\276Uk\262<)\316\231=\365i <4o1\275v\361\323\275\335p\353\275\306\247/\276\3427\306\274o\324\272<(\"$\276b\272\034\275\024\332\330\274\333[\006\276\300\252\330\274\014\310\275=\202\310\210\275\270=Y\276\254c\263\275\272|.\275\2115v=\201\336\271<\265\314\271\276\362r\025>\251 \345\275I\227_=\306\0031\2750p\030\276G\237\307=\024\352\307=\224\2561=l\016\265=\245\243\344=\235\3379=\272\337\272:zZ\311\275 \361\250\275E]3\274^@\022\276\272\276J=\267\330\325\274\221\201\266\275\334\027\251<\252\244\300=#C\236\276<9\r\275G \301=\274\311\216\275\324\363\021>\360W\376\275Ws\316=\342q0:\034I\026\276X+%\276Z\366\027\276\260S\010\275D\305\026=\273\221i\273\211\3017\276\256\334\326\275oq\032>\2144\030\276o9\347\275\210\346\024\275\220\234C\276)\315c\275\211\010\253\274\352\355\257<:,\277\274\212$\255\273\254W\317\275\234\325\031\276\327\333\213\275i\031\261\275\223\020m\275\301\320(=\242.]<q.\334\275\335\262\227\275\355\230\214<&\204 =\234\350\237\275\020K\037\275=hP\274y\034E\275\353\306\347\275\230\362|\276\325\301\335\274\r\\\271<\3763\347=\023\337\224=\014\'\003\276\245[\356<\257$\001=\226\253\020\2748\007$=v;Y\275\002\231\231\275\246\375\223\275\356o\307=\256\334B\275\331rf\275\3138\032\276!\017i\275\224m2\276\207\236\377\273?\035\202\273@\350\363<kz\261\275\252\030;\2755\020\363<`\237\364\275\300\277^\271\223I\236\275\1776\002> \231\273\275\001\204?\275(cT\276\275o\364\275\017j$\276mMG\275\315|\037\275+\374\352\275\211?\005\276\377\004,>o\267!\275z\347+\276\310;\211<\225\355\300\275\301\\\000\275\010|\205\274\3051f\2753\336\002\276u\306\265</\031\013\273\013,O\275\313\177\031=\036\351\346\273t\\\244\276Fca=hHv\275J\220\016>\021\317p\271_\266\315\275\014\301\020\275!\\\022\276\207\200<\276\024aw\276_<?;\337V\'=o\215\026\276\023\233\213\275\340\361\203\275\2417\177=\'\r~\275\215b\206\276\274+\316\275\234\302\364=|\305\353\273\222k\256\274\334\352\211=\n\025\262=\205\303\016\275\330\366\004\276\261\251\323\275y\220K\275\215\001\036>\253\351&\276I\212=\276\304\027\250\275 \005\203<|\016\024\276E\037\004\277MD\307\275P\024\242\275~\367\336\275I\307\212=\033\314\350\275\343\226\241\275\237\026\034\275\212~\302=\346\313k\276\211\017\204=\347\263\305\275c\266\017=\207\222\231\275=\237\266\275\345\233a=\342\"\006\276\317l&\275\267\255#\276I\261\272\275\016i\300\276\236\244\365=S\007\243=\314$\013\275UV\324\273#\021p=\024-\023=\353\001\230\275f\216\374=f\177\007\275{\321\033\276\232!\357=w2`=J^\000=\361R\2279I\r\030\276d\261\310\275@\n\010\276\242\214\316\275\217g\226\276\021M\256\2750\232q=\306\3130\276?D\331\271\265WA\276\377\351k=b\027\327\273\205\201E\276\364\224\t\275\365\004\242=_\323\201\275\330LI\273d\362&\274\334dv\275?q\361\275\025\234_\276\301?>\276\331\254\265\275^\0214>>,\320;TN\361\275\340\250\022\275\306\031\010:\250qF\275\"\337\326\276a\2348\275Yx\211\275\200\320v<\242\347\346<R\177\007\276\263\353\350\275\"?\260:\344v\010>\023\005\220\275>\373/=\033\243\344\275\254\354\232\276\372q\313\274$P\030=\275\200\035>\241\377e\275\352\335\034;\302t)\276\373\010;\275\272\3046\276+\302\024>\224\274\243=\372\302\325=\236\370\335\275\026\341\243=F\335\271<E\327\257\274\216\220\200=x=!\275\214\315\037>\376n\366=\302\307\'\276\341\235\"\274V\256\346\274\251\357i\276\251]\236\275;\037\206\274N\240\317\275\213\345\251\276\313pF\276\203s\"=%F5\276\266\023\032=\276f\000\276\252\360\016\274YDb\275\367b\331\275\rE#\2761\002\027\276\026-Q\276%\303\026\275\031H\005=D\370\243\274N,\021\276nA\327\275=]\306\275Cb\203\274\372OA>3\272$\275\363\374\345\273\277n\232\275$\035s\276i. \275$\003y\276D11\275\344c\215>\254\343\277\275b\023\363<\330\006\225\276K2\235\275\317nb\275\202\274\235=.\264\340\275\221\314\210=\003C\230=l\304r\276*\261\003\276\263M\332=g@\343\275\376\267\267\275\253\\\272\274\257f0>\225D\254=\213X4\276\330s\310=e<\021>\325t\001=\350\303\323\274\343G:\276\361\337\177\275\255\370~\275\256$3>\343C);f^\016\276(\337\030\275\351\271\251=\315\250\333\275FJ\032=\323\001\004>\345\256\204\275\351&\243\275\332U\217=C\341\377\273\310u\330=^\360\320=\3764]\276\230\321\251\274\347\233\254\275\365\226]\275\311G\177\275\232\212.\2765UI\275A\020\305=\023\267\003>\265\255\306=\315\362$=\000\021k\275\241[\305<$\221`\274\014\217\351\275qT\216<-\226\251\275A\022\263=?\317\021\276C\214\202\276\303fA=\215\211\262\2743\221S\276\001\251h=\000\354\335\275?*\036\276\247\367\033>?SG\275\345r1=\037\243\267<\023\245\201\275\365/\226\276|AI\275\275\273\304<\246\252\r\276|!\366:\233r7\276\255\252o<\226\200\004>\217\2054\276\365\231\361\275Q/\240=\026\222g\276\274m\200=\032\026e=\325\215\345\274v\036*\276\034h\314<%J\r\275\316\364\334\275\320\210\264\275\344\250\376\273\244\341!\276\206\n&\275*Bp<x\310\316\275nY\247=3k>=\373\001\375\275\032 \371\274\263\357\224\274\207k \275D\224\037\275\276\277#\275mk\030\276\332\323A=%U\201\275\210\303\211\275\217\371\324\274.\\\021\275\035\214\027=\221\212\240<IK\264=\217m\337\274\214\002==\327\027I\275\244|\234\275\t\270\263\275W\037O;\205\252y\275\232=\307\275\257D\340\275\312\331\356\275H\305\237\275\347w\354;n\227\254;\216\316\247\275\344![\275;x_\275\020\307\022\276q\2463<$\001o=\307q\033<\035\362\224=X\336g\274\177\3305\276\307\006q\275\212P\312\274\276\246i\275^\267\224=v\264\224\275\014\322\034\275\215\352\002\275%\030\177=.\253\033\276=+\236=\300\324T\276O\027\001\275\304\345u=\3416,=A\302\254<\034\373\240;m\r\177\275\177\306\277\275\277\026\215<u\240\311\2750}\361\275L\211\205=k\316\030\275\217\253\354\275\022)d\274\366i\263\2732is=\207\366\t\276\177\351$\276\214\337\010\276\334\024\n\275\251\271;\275\273\026\252\276\342\365\225\275w\324\303\274\261d#>\267\265\223<\037\252\336\275\010\177\022\275h\234\005=W\307\253<\310\027\213=\344\177\024\275\340\3010<`\027\250;\310/\214\275T\033\272\275\324^\222\275\247\276\334\275`\300\210\274\250\2573\276!\217\000\276\000\342}=aJ\007\274Ngh\276O\3278=\340.\361\274:|K\275\204\357\210=\330\333l\275\374\273\367=h\231\313\274\312;`<\233j7\276\346\203\226\275\220w\024\274\220\303#>\367\226A\275\263g\013\276\342\017\366\275\345\036\211=\224\003j\275\034\007\337\275^>+\275\231\376\006\276)\343\334=:\363\000\271aq6\275|\344#\275x\313E=\250\030\303;\002;\203\275\225f{=\333\244\361\275R\335\376\275i\027!>\340\013\317\275<\'\237=\325\256~>E\373\024=\t\351\357\275\355J\022>DeX>8?Y\275\361\346\236>\3347y>x\312\'=\025\376\210;\327\320\275\275\336\263\301=\361\271\"\276\336 \262<\003\215e\276!\226{>\231\267\347\2752\250I=4\370\014>\305)\377=\027\215A\275\314\321\240\275\036\214\010\276l\\\335=\210(\303<\313gb\275S\'R>4\205.=\217h\260\273<\352\026\275:,B=j\307\372\274\014:\332\274\361\215m=\301\205\234\274\311\2104\275\031F$\275\'K\'\275\201\336\321=\321\202D\274\365\376\226=\227h\205<x\0332>\"\301\207\275\303V\006=z?\303\275u\001\371\275\r\016\205\276\347MU\275\317\321\204>\331\304\030\276[\232\r\276\237\007#>\335*\252\274\201cF\274\247\251\371=\231H\202\275\327\356\231=\345\215\340\273>\333\021=\261\367G<\251\0005>\026.\363<`\260\215;\354\213\341\275\353\270\327\275\207\035\025\276w6\021\276X\306\250=\366\237\277\275\263\355c=\242\005\035\276n\371\330\271\nj\337\275\374\347\000\276\340\242\227\275\335\260\205\275\206\037\361\274k\0061\275D\356R\274\265--=\005e\036\276\203\006\306\273\024u\027\276;\356W>3\224[=\350\363\374=\261\250\320\275OuT>ss|>\327\320^\272\313r\023\276\t\215\270\273\240\265\023>\357c\254=\354\323c>/4\207\276\205K\004\276\200\347\006>\370a-=z\347\334\275\205F`\275)\236\260\2732\274\003\276\220\364\311;\231\277\231\275\3517\236<\207\341\253\274\037\\P\275\374c\374=\301H}>\361\247\320\274\341N(=\002\211\177=\273\225z\276(\341\246=\275\033\364=\345P\002>\037\240b\275\355\026\210=\206\277>>\3501\326=*\241\275=/I\364\274\237\002?\276\201\005\244\275\302]\017\276\232/7=G\211\032\275\005\373E\276\243\370\340\2753\226k<\230A\231\275e\016\234\276\307\017\020\274 t\010>tB\021\276W6\020\276\327h\336\275w\264\344\275_\354\236\274\226\000\204\276\231\343n\275\275\265\246=&\r+\274\300\025\001\276\005\010\272\275\213\353\212=\030~c\275\304\237.\276\2140\365\275I\353\246\275\223\277[>`\361\013\276\326\202\211\276\260-\n\276\014\255\252=\226\305\255\275\222\365\265\276\240!\236\275\r\332\236\276^S\253;,\357\363=\033#\313\274h\361K\276\377\214;\275\321O\\=\256\235C\276\231c\031\275\3565N\276i\274\351\275\300,